{"<pad>": 0, "<unk>": 1, "[CLS]": 2, "[SEP]": 3, "[MASK]": 4, "(": 5, ")": 6, "\"": 7, "-": 8, ".": 9, "\u2013": 10, "\u00a3": 11, "\u20ac": 12, "\u2581": 13, "\u2581the": 14, ",": 15, "\u2581of": 16, "\u2581and": 17, "s": 18, "\u2581in": 19, "\u2581to": 20, "\u2581a": 21, "'": 22, "\u2581was": 23, "\u2581he": 24, "\u2581is": 25, "\u2581for": 26, "\u2581on": 27, "\u2581as": 28, "\u2581with": 29, "\u2581that": 30, "\u2581i": 31, "\u2581it": 32, "\u2581his": 33, "\u2581by": 34, "\u2581at": 35, "\u2581her": 36, "\u2581from": 37, "t": 38, "\u2581she": 39, "\u2581an": 40, "\u2581had": 41, "\u2581you": 42, "d": 43, "\u2581be": 44, ":": 45, "\u2581were": 46, "\u2581but": 47, "\u2581this": 48, "i": 49, "\u2581are": 50, "\u2581my": 51, "\u2581not": 52, "\u2581one": 53, "\u2581or": 54, "\u2581me": 55, "\u2581which": 56, "\u2581have": 57, "a": 58, "\u2581they": 59, "?": 60, "\u2581him": 61, "e": 62, "\u2581has": 63, "\u2581first": 64, "\u2581all": 65, "\u2581their": 66, "\u2581also": 67, "ing": 68, "ed": 69, "\u2581out": 70, "\u2581up": 71, "\u2581who": 72, ";": 73, "\u2581been": 74, "\u2581after": 75, "\u2581when": 76, "\u2581into": 77, "\u2581new": 78, "m": 79, "\u2581there": 80, "\u2581two": 81, "\u2581its": 82, "\u2581would": 83, "\u2581over": 84, "\u2581time": 85, "\u2581so": 86, "\u2581said": 87, "\u2581about": 88, "\u2581other": 89, "\u2581no": 90, "\u2581more": 91, "\u2581can": 92, "y": 93, "\u2581then": 94, "\u2581we": 95, "th": 96, "\u2581back": 97, "\u2581what": 98, "re": 99, "\u2581if": 100, "\u2581like": 101, "ly": 102, "n": 103, "\u2581only": 104, "\u2581them": 105, "er": 106, "\u2581do": 107, "in": 108, "\u2581some": 109, "\u2581could": 110, "o": 111, "\u2581during": 112, "\u2581where": 113, "\u2581just": 114, "\u2581before": 115, "\u2581school": 116, "\u2581made": 117, "/": 118, "\u2581than": 119, "\u2581through": 120, "\u2581de": 121, "\u2581years": 122, "\u2581may": 123, "the": 124, "\u2581down": 125, "\u2581world": 126, "\u2581most": 127, "\u2581between": 128, "\u2581will": 129, "\u2581now": 130, "\u2581under": 131, "\u2581three": 132, "\u2581while": 133, "\u2581well": 134, "2": 135, "\u2581city": 136, "\u25811": 137, "\u2581later": 138, "r": 139, "\u2581around": 140, "\u2581part": 141, "\u2581being": 142, "\u2581know": 143, "\u2581did": 144, "\u2581such": 145, "\u2581state": 146, "\u2581used": 147, "\u2581people": 148, "\u2581against": 149, "c": 150, "\u2581many": 151, "\u2581national": 152, "\u2581second": 153, "\u2581your": 154, "\u2581university": 155, "\u2581both": 156, "\u2581head": 157, "\u2581these": 158, "\u2581year": 159, "es": 160, "\u2581way": 161, "\u2581go": 162, "\u2581until": 163, "\u2581get": 164, "1": 165, "\u2581even": 166, "\u2581known": 167, "\u2581off": 168, "\u2581man": 169, "\u2581work": 170, "\u2581film": 171, "\u25812": 172, "\u2581team": 173, "\u2581still": 174, "\u2581long": 175, "\u2581war": 176, "man": 177, "\u2581became": 178, "\u2581since": 179, "\u2581south": 180, "\u2581united": 181, "\u2581us": 182, "\u2581high": 183, "\u2581how": 184, "\u2581because": 185, "\u2581any": 186, "!": 187, "\u2581again": 188, "\u2581american": 189, "\u2581family": 190, "\u2581house": 191, "al": 192, "\u2581right": 193, "\u2581eyes": 194, "ve": 195, "\u2581see": 196, "k": 197, "\u2581season": 198, "\u2581took": 199, "\u2581north": 200, "\u2581life": 201, "\u2581states": 202, "\u25813": 203, "\u2581name": 204, "\u2581same": 205, "\u2581each": 206, "\u2581however": 207, "\u2581day": 208, "\u2581place": 209, "an": 210, "ll": 211, "\u2581much": 212, "\u2581home": 213, "\u2581group": 214, "\u2581including": 215, "\u2581found": 216, "\u2581area": 217, "on": 218, "en": 219, "b": 220, "\u2581don": 221, "\u2581four": 222, "\u2581didn": 223, "\u2581hand": 224, "\u2581left": 225, "\u2581another": 226, "\u2581called": 227, "\u2581going": 228, "\u2581away": 229, "\u2581won": 230, "\u2581series": 231, "\u2581music": 232, "\u2581make": 233, "\u2581number": 234, "\u2581here": 235, "\u2581last": 236, "\u2581company": 237, "\u2581several": 238, "\u2581john": 239, "3": 240, "\u2581end": 241, "it": 242, "\u2581never": 243, "\u2581album": 244, "you": 245, "\u2581best": 246, "\u2581take": 247, "or": 248, "\u2581following": 249, "\u2581game": 250, "no": 251, "h": 252, "\u2581very": 253, "\u2581good": 254, "l": 255, "\u2581district": 256, "\u2581played": 257, "\u2581own": 258, "\u2581want": 259, "\u2581began": 260, "\u2581released": 261, "to": 262, "g": 263, "5": 264, "\u2581little": 265, "\u2581too": 266, "us": 267, "\u25814": 268, "\u2581held": 269, "\u2581side": 270, "\u2581county": 271, "\u2581c": 272, "\u2581those": 273, "\u2581early": 274, "\u2581use": 275, "\u2581face": 276, "\u2581think": 277, "\u2581league": 278, "\u2581&": 279, "\u2581west": 280, "\u2581came": 281, "\u2581air": 282, "\u2581government": 283, "\u2581small": 284, "\u2581march": 285, "\u2581town": 286, "\u2581u": 287, "\u2581club": 288, "\u2581thought": 289, "and": 290, "u": 291, "\u2581looked": 292, "\u2581line": 293, "\u2581international": 294, "\u2581june": 295, "\u2581went": 296, "\u2581general": 297, "\u2581show": 298, "\u2581september": 299, "4": 300, "\u2581something": 301, "\u2581re": 302, "\u2581along": 303, "\u2581men": 304, "\u2581york": 305, "p": 306, "\u2581m": 307, "\u2581water": 308, "\u2581set": 309, "\u2581few": 310, "\u2581october": 311, "\u2581station": 312, "\u2581july": 313, "\u2581college": 314, "\u2581old": 315, "\u2581august": 316, "\u2581public": 317, "\u2581our": 318, "\u2581black": 319, "\u2581january": 320, "\u2581father": 321, "\u2581member": 322, "\u2581band": 323, "\u2581church": 324, "na": 325, "\u2581co": 326, "\u2581april": 327, "\u2581next": 328, "\u2581system": 329, "\u2581got": 330, "\u25815": 331, "\u258110": 332, "\u2581la": 333, "\u2581b": 334, "\u2581located": 335, "\u2581former": 336, "\u2581room": 337, "\u2581song": 338, "\u2581love": 339, "\u2581come": 340, "\u2581river": 341, "\u2581east": 342, "\u2581night": 343, "\u2581november": 344, "\u2581single": 345, "\u2581party": 346, "\u258116": 347, "\u2581age": 348, "\u2581car": 349, "\u2581population": 350, "\u2581p": 351, "\u2581every": 352, "\u2581building": 353, "\u2581st": 354, "\u2581five": 355, "\u2581december": 356, "\u258115": 357, "\u2581body": 358, "\u2581white": 359, "\u2581book": 360, "\u2581look": 361, "\u2581though": 362, "\u2581within": 363, "\u2581women": 364, "\u2581service": 365, "\u2581without": 366, "\u2581un": 367, "\u2581open": 368, "\u258117": 369, "\u2581large": 370, "\u2581top": 371, "\u2581death": 372, "\u2581started": 373, "\u2581great": 374, "\u2581local": 375, "\u2581need": 376, "\u2581named": 377, "\u2581should": 378, "6": 379, "z": 380, "born": 381, "\u2581once": 382, "\u2581road": 383, "st": 384, "\u2581moved": 385, "\u2581born": 386, "0": 387, "\u2581british": 388, "\u2581order": 389, "\u258112": 390, "\u2581children": 391, "\u2581built": 392, "\u2581door": 393, "\u2581major": 394, "\u2581say": 395, "x": 396, "\u2581due": 397, "\u2581f": 398, "\u2581village": 399, "\u25816": 400, "\u2581km": 401, "\u2581red": 402, "is": 403, "\u2581knew": 404, "\u2581park": 405, "\u2581president": 406, "\u2581main": 407, "\u2581let": 408, "\u2581february": 409, "f": 410, "\u2581asked": 411, "\u2581turned": 412, "le": 413, "\u2581power": 414, "\u2581art": 415, "\u2581per": 416, "\u2581wanted": 417, "\u2581play": 418, "\u2581although": 419, "\u2581received": 420, "\u2581different": 421, "\u2581third": 422, "\u2581served": 423, "\u2581near": 424, "\u2581himself": 425, "\u2581final": 426, "\u2581felt": 427, "\u2581century": 428, "\u2581together": 429, "\u2581voice": 430, "\u2581front": 431, "\u2581based": 432, "\u2581son": 433, "\u258120": 434, "\u2581football": 435, "\u2581times": 436, "\u2581king": 437, "he": 438, "\u2581behind": 439, "\u2581died": 440, "\u2581saw": 441, "\u2581put": 442, "\u2581members": 443, "ton": 444, "ers": 445, "\u2581street": 446, "\u2581history": 447, "\u2581help": 448, "\u2581mother": 449, "\u2581award": 450, "\u2581law": 451, "\u2581having": 452, "\u25817": 453, "\u2581point": 454, "\u2581army": 455, "\u2581late": 456, "8": 457, "we": 458, "\u2581center": 459, "\u2581division": 460, "\u2581young": 461, "\u2581ever": 462, "\u2581far": 463, "\u2581across": 464, "7": 465, "\u2581games": 466, "\u2581published": 467, "\u2581include": 468, "\u25818": 469, "\u2581told": 470, "\u2581light": 471, "as": 472, "\u2581hands": 473, "\u258118": 474, "\u2581country": 475, "\u2581land": 476, "\u2581find": 477, "\u2581often": 478, "\u2581london": 479, "\u2581cup": 480, "\u2581led": 481, "\u2581species": 482, "\u2581why": 483, "\u2581french": 484, "\u2581run": 485, "\u2581english": 486, "\u2581j": 487, "\u2581office": 488, "\u2581g": 489, "\u2581six": 490, "\u2581must": 491, "\u2581gave": 492, "\u2581al": 493, "\u2581tell": 494, "\u2581court": 495, "\u2581according": 496, "\u2581among": 497, "\u25812010": 498, "w": 499, "]": 500, "\u2581original": 501, "\u2581short": 502, "\u2581full": 503, "\u2581given": 504, "\u2581form": 505, "\u2581included": 506, "\u2581million": 507, "\u2581business": 508, "\u2581days": 509, "\u2581really": 510, "\u2581enough": 511, "ar": 512, "\u258114": 513, "\u2581community": 514, "\u2581live": 515, "\u2581council": 516, "\u2581player": 517, "9": 518, "\u2581half": 519, "\u2581opened": 520, "\u2581central": 521, "\u2581development": 522, "\u2581san": 523, "\u2581woman": 524, "ra": 525, "\u2581wasn": 526, "\u2581research": 527, "son": 528, "\u2581lost": 529, "\u2581might": 530, "la": 531, "el": 532, "\u2581become": 533, "\u2581mi": 534, "\u2581fire": 535, "ta": 536, "do": 537, "\u2581non": 538, "\u258113": 539, "ma": 540, "\u2581seen": 541, "\u25812011": 542, "\u2581close": 543, "\u2581making": 544, "\u2581career": 545, "de": 546, "\u258111": 547, "\u2581german": 548, "ia": 549, "\u2581always": 550, "\u2581free": 551, "\u2581hard": 552, "\u2581island": 553, "\u2581hall": 554, "\u2581support": 555, "ne": 556, "\u2581almost": 557, "\u2581force": 558, "\u2581director": 559, "\u2581round": 560, "\u25819": 561, "\u2581sure": 562, "\u25812012": 563, "\u2581things": 564, "\u2581education": 565, "\u2581v": 566, "\u2581married": 567, "\u2581using": 568, "\u2581control": 569, "\u25812008": 570, "\u2581record": 571, "\u2581inside": 572, "\u2581students": 573, "\u2581better": 574, "\u2581field": 575, "up": 576, "\u2581worked": 577, "\u2581continued": 578, "able": 579, "\u2581big": 580, "\u2581title": 581, "\u2581heart": 582, "\u2581feel": 583, "\u2581thing": 584, "\u2581human": 585, "\u2581james": 586, "\u2581returned": 587, "\u25812009": 588, "\u2581am": 589, "\u2581give": 590, "te": 591, "\u25812006": 592, "da": 593, "\u2581mind": 594, "\u2581ii": 595, "ic": 596, "\u2581role": 597, "\u2581sea": 598, "\u2581championship": 599, "\u2581total": 600, "\u2581act": 601, "\u2581anything": 602, "\u2581radio": 603, "\u2581department": 604, "\u2581william": 605, "\u2581feet": 606, "\u2581association": 607, "what": 608, "\u2581story": 609, "\u2581case": 610, "\u2581military": 611, "\u2581royal": 612, "\u2581established": 613, "\u2581already": 614, "\u2581version": 615, "\u25812013": 616, "\u2581various": 617, "land": 618, "\u2581w": 619, "\u2581period": 620, "\u2581special": 621, "ry": 622, "\u25812014": 623, "\u25812007": 624, "\u2581program": 625, "\u2581nothing": 626, "\u2581hair": 627, "\u2581win": 628, "\u2581rock": 629, "\u2581does": 630, "ley": 631, "\u2581region": 632, "\u2581television": 633, "\u2581living": 634, "\u2581o": 635, "\u2581[": 636, "\u2581production": 637, "\u2581working": 638, "\u2581least": 639, "\u2581past": 640, "\u2581society": 641, "\u2581written": 642, "\u2581keep": 643, "\u2581l": 644, "\u2581call": 645, "\u2581sound": 646, "\u2581green": 647, "\u2581england": 648, "\u2581position": 649, "\u2581western": 650, "\u2581soon": 651, "\u2581ten": 652, "\u2581further": 653, "\u2581others": 654, "\u2581brother": 655, "so": 656, "ka": 657, "\u2581taken": 658, "\u2581dark": 659, "ie": 660, "ro": 661, "\u2581level": 662, "\u2581wife": 663, "\u2581reached": 664, "\u2581george": 665, "\u2581ground": 666, "\u2581union": 667, "\u2581social": 668, "\u2581project": 669, "\u2581joined": 670, "\u2581produced": 671, "\u2581lead": 672, "ch": 673, "\u2581course": 674, "\u2581political": 675, "\u2581information": 676, "\u2581done": 677, "\u2581post": 678, "\u2581created": 679, "\u2581k": 680, "\u2581important": 681, "\u2581appeared": 682, "\u2581real": 683, "\u2581david": 684, "\u2581upon": 685, "\u2581board": 686, "\u2581services": 687, "\u2581moment": 688, "\u2581site": 689, "\u25812016": 690, "\u25812015": 691, "\u2581battle": 692, "\u2581works": 693, "\u2581either": 694, "\u2581girl": 695, "\u2581blood": 696, "\u2581summer": 697, "\u2581police": 698, "\u2581looking": 699, "\u2581instead": 700, "\u2581god": 701, "ist": 702, "\u2581announced": 703, "\u2581design": 704, "\u2581blue": 705, "nd": 706, "\u2581arms": 707, "\u2581low": 708, "\u2581followed": 709, "v": 710, "\u2581couldn": 711, "\u258130": 712, "\u25810": 713, "\u2581france": 714, "\u2581words": 715, "co": 716, "\u2581ran": 717, "\u2581class": 718, "\u2581outside": 719, "ness": 720, "at": 721, "\u2581finally": 722, "um": 723, "\u2581considered": 724, "\u2581mouth": 725, "\u2581space": 726, "\u2581lake": 727, "j": 728, "\u2581toward": 729, "\u2581match": 730, "year": 731, "\u258119": 732, "\u2581european": 733, "\u2581present": 734, "\u2581square": 735, "\u2581professional": 736, "\u2581someone": 737, "\u2581wrote": 738, "\u2581india": 739, "\u2581america": 740, "\u2581taking": 741, "\u2581records": 742, "\u2581northern": 743, "\u2581dr": 744, "\u2581described": 745, "\u2581h": 746, "\u2581stop": 747, "\u2581bar": 748, "\u2581trying": 749, "\u2581australia": 750, "\u2581california": 751, "\u2581heard": 752, "\u2581change": 753, "\u2581miles": 754, "men": 755, "ism": 756, "\u2581common": 757, "\u2581paul": 758, "os": 759, "\u2581rest": 760, "\u2581r": 761, "\u2581science": 762, "\u2581video": 763, "\u2581race": 764, "am": 765, "\u2581gold": 766, "\u2581leave": 767, "\u2581yet": 768, "\u2581wall": 769, "\u2581hit": 770, "\u258125": 771, "\u2581middle": 772, "\u2581modern": 773, "\u2581museum": 774, "\u2581southern": 775, "\u2581election": 776, "\u2581able": 777, "\u2581star": 778, "by": 779, "\u2581move": 780, "\u2581care": 781, "\u2581pre": 782, "\u2581daughter": 783, "\u2581above": 784, "\u2581founded": 785, "\u2581today": 786, "\u2581less": 787, "\u2581return": 788, "\u2581minister": 789, "me": 790, "\u2581playing": 791, "\u2581track": 792, "ca": 793, "\u2581tried": 794, "\u2581sent": 795, "\u2581everything": 796, "\u2581im": 797, "\u2581met": 798, "\u2581start": 799, "\u2581=": 800, "\u2581recorded": 801, "ling": 802, "\u2581floor": 803, "don": 804, "\u2581turn": 805, "ian": 806, "\u2581event": 807, "\u2581100": 808, "\u2581brought": 809, "\u2581seven": 810, "but": 811, "\u25812005": 812, "\u2581arm": 813, "\u25812017": 814, "ter": 815, "\u2581language": 816, "den": 817, "\u2581months": 818, "\u2581points": 819, "\u2581mr": 820, "if": 821, "\u2581robert": 822, "\u2581example": 823, "\u25812000": 824, "\u2581kind": 825, "\u2581railway": 826, "\u2581closed": 827, "\u2581dead": 828, "\u2581result": 829, "\u2581release": 830, "\u2581thomas": 831, "\u2581michael": 832, "\u2581word": 833, "ge": 834, "\u2581similar": 835, "\u2581canada": 836, "\u2581fact": 837, "\u2581training": 838, "go": 839, "\u2581person": 840, "\u2581killed": 841, "\u2581finished": 842, "\u2581formed": 843, "\u2581popular": 844, "\u2581doing": 845, "\u2581tour": 846, "\u2581sat": 847, "\u2581addition": 848, "one": 849, "\u2581child": 850, "\u2581needed": 851, "\u258121": 852, "\u2581health": 853, "well": 854, "\u2581deep": 855, "ity": 856, "ation": 857, "\u2581route": 858, "\u2581table": 859, "\u2581friend": 860, "\u2581centre": 861, "\u2581average": 862, "be": 863, "\u2581rather": 864, "\u2581lot": 865, "\u2581current": 866, "\u2581stood": 867, "\u2581decided": 868, "\u2581despite": 869, "se": 870, "\u2581currently": 871, "ion": 872, "\u2581bed": 873, "\u2581festival": 874, "\u2581money": 875, "\u2581stage": 876, "\u2581week": 877, "\u2581eventually": 878, "\u2581forces": 879, "\u2581coming": 880, "\u2581pulled": 881, "\u2581idea": 882, "\u2581boy": 883, "\u2581mean": 884, "\u2581developed": 885, "\u2581brown": 886, "that": 887, "\u2581elected": 888, "ni": 889, "\u2581seemed": 890, "time": 891, "\u2581throughout": 892, "\u2581debut": 893, "\u25812004": 894, "\u2581pro": 895, "\u2581bad": 896, "rd": 897, "\u2581says": 898, "\u2581bay": 899, "\u2581construction": 900, "\u2581press": 901, "\u2581minutes": 902, "\u2581chief": 903, "\u2581available": 904, "\u2581added": 905, "\u25811,": 906, "\u2581mid": 907, "\u2581signed": 908, "\u2581indian": 909, "\u2581probably": 910, "ur": 911, "\u2581originally": 912, "\u2581maybe": 913, "\u2581germany": 914, "my": 915, "\u2581songs": 916, "\u2581forward": 917, "12": 918, "\u2581cross": 919, "\u2581grand": 920, "ko": 921, "\u2581charles": 922, "less": 923, "\u2581areas": 924, "\u2581character": 925, "\u2581di": 926, "\u2581sir": 927, "ri": 928, "\u2581appointed": 929, "\u2581talk": 930, "\u2581el": 931, "\u2581private": 932, "\u2581australian": 933, "\u2581institute": 934, "\u2581remained": 935, "\u2581peter": 936, "\u258124": 937, "\u2581possible": 938, "\u2581sun": 939, "\u2581committee": 940, "\u2581media": 941, "\u2581episode": 942, "\u2581mark": 943, "\u2581plan": 944, "\u2581sold": 945, "\u2581running": 946, "il": 947, "\u2581hill": 948, "\u2581study": 949, "\u2581food": 950, "\u2581usually": 951, "\u2581teams": 952, "\u2581process": 953, "\u2581friends": 954, "\u2581bridge": 955, "\u2581performance": 956, "\u2581smile": 957, "\u2581herself": 958, "\u2581morning": 959, "com": 960, "\u25811990": 961, "\u2581else": 962, "\u2581events": 963, "\u2581books": 964, "\u2581bank": 965, "\u2581strong": 966, "\u2581features": 967, "\u2581list": 968, "ba": 969, "\u2581eight": 970, "\u2581province": 971, "\u2581sub": 972, "\u25812003": 973, "\u2581hours": 974, "\u2581census": 975, "\u2581quickly": 976, "\u2581coach": 977, "\u2581range": 978, "\u2581whole": 979, "\u2581hospital": 980, "\u2581term": 981, "\u2581network": 982, "\u2581tv": 983, "\u2581guitar": 984, "\u2581believe": 985, "\u2581performed": 986, "\u2581lower": 987, "\u2581seat": 988, "\u2581official": 989, "\u2581hear": 990, "\u2581attack": 991, "\u2581myself": 992, "\u2581x": 993, "ha": 994, "\u2581ship": 995, "\u2581news": 996, "\u2581beginning": 997, "\u2581china": 998, "\u2581shot": 999, "\u2581base": 1000, "\u2581type": 1001, "\u2581europe": 1002, "\u2581eastern": 1003, "ja": 1004, "\u2581leading": 1005, "\u2581designed": 1006, "\u2581players": 1007, "\u2581arts": 1008, "\u2581le": 1009, "\u2581henry": 1010, "\u2581studies": 1011, "\u2581directed": 1012, "\u2581involved": 1013, "\u2581stone": 1014, "\u2581changed": 1015, "\u2581towards": 1016, "\u2581getting": 1017, "\u2581movement": 1018, "\u2581van": 1019, "un": 1020, "\u2581below": 1021, "\u2581future": 1022, "\u2581academy": 1023, "\u258122": 1024, "\u2581kept": 1025, "\u2581super": 1026, "\u2581hold": 1027, "\u2581action": 1028, "\u2581japan": 1029, "\u2581sometimes": 1030, "ner": 1031, "\u2581professor": 1032, "\u2581washington": 1033, "\u2581style": 1034, "\u2581sister": 1035, "10": 1036, "\u2581placed": 1037, "\u2581civil": 1038, "\u2581magazine": 1039, "\u2581jack": 1040, "of": 1041, "\u2581gone": 1042, "\u25811980": 1043, "\u2581mary": 1044, "\u2581longer": 1045, "ya": 1046, "\u2581hot": 1047, "ke": 1048, "\u2581dont": 1049, "\u2581section": 1050, "\u2581wide": 1051, "\u2581du": 1052, "17": 1053, "\u2581data": 1054, "\u2581schools": 1055, "\u2581alone": 1056, "\u2581capital": 1057, "\u2581federal": 1058, "\u2581sports": 1059, "pa": 1060, "\u2581model": 1061, "\u2581captain": 1062, "\u2581uk": 1063, "\u2581female": 1064, "\u2581con": 1065, "\u2581completed": 1066, "\u2581walked": 1067, "\u2581lord": 1068, "\u2581officer": 1069, "\u2581featured": 1070, "\u2581bill": 1071, "\u2581size": 1072, "\u2581earth": 1073, "\u2581fight": 1074, "\u2581largest": 1075, "\u2581competition": 1076, "\u2581cut": 1077, "\u2581entire": 1078, "she": 1079, "\u2581fall": 1080, "\u2581theatre": 1081, "\u2581anti": 1082, "\u2581lips": 1083, "ty": 1084, "\u2581tournament": 1085, "\u2581thus": 1086, "18": 1087, "\u2581medical": 1088, "\u25812001": 1089, "\u2581breath": 1090, "16": 1091, "\u2581rose": 1092, "\u25812002": 1093, "\u2581hell": 1094, "\u2581japanese": 1095, "\u2581rights": 1096, "\u2581management": 1097, "\u2581richard": 1098, "\u2581technology": 1099, "\u2581passed": 1100, "\u2581senior": 1101, "\u2581kingdom": 1102, "\u2581includes": 1103, "\u2581coast": 1104, "ce": 1105, "for": 1106, "\u2581leaving": 1107, "\u2581means": 1108, "field": 1109, "\u25812018": 1110, "\u2581spent": 1111, "\u2581natural": 1112, "\u2581sam": 1113, "\u2581mine": 1114, "di": 1115, "\u2581chinese": 1116, "\u2581reported": 1117, "\u2581especially": 1118, "\u2581self": 1119, "\u2581studio": 1120, "\u2581actually": 1121, "\u2581energy": 1122, "\u2581fine": 1123, "\u2581independent": 1124, "ville": 1125, "con": 1126, "\u2581raised": 1127, "\u2581vocals": 1128, "\u2581master": 1129, "ment": 1130, "\u2581try": 1131, "\u2581phone": 1132, "\u25811970": 1133, "oh": 1134, "\u2581market": 1135, "ga": 1136, "\u258123": 1137, "\u2581staff": 1138, "\u2581fell": 1139, "\u2581fourth": 1140, "\u2581replaced": 1141, "\u2581bit": 1142, "line": 1143, "\u2581parents": 1144, "\u2581itself": 1145, "\u2581christian": 1146, "\u2581aircraft": 1147, "\u2581saying": 1148, "ine": 1149, "\u2581campaign": 1150, "\u2581true": 1151, "\u2581valley": 1152, "za": 1153, "\u2581russian": 1154, "\u2581canadian": 1155, "\u2581leader": 1156, "der": 1157, "\u2581previous": 1158, "\u2581allowed": 1159, "\u2581awards": 1160, "\u2581matter": 1161, "\u2581paris": 1162, "\u2581interest": 1163, "\u2581saint": 1164, "\u2581organization": 1165, "\u2581countries": 1166, "\u2581smith": 1167, "\u2581degree": 1168, "\u2581artist": 1169, "\u2581groups": 1170, "\u2581roman": 1171, "\u2581silver": 1172, "\u2581provided": 1173, "\u2581writing": 1174, "\u2581stopped": 1175, "\u2581awarded": 1176, "\u2581kill": 1177, "\u2581queen": 1178, "\u2581stay": 1179, "\u2581african": 1180, "\u2581provide": 1181, "\u2581didnt": 1182, "\u2581deal": 1183, "\u2581higher": 1184, "day": 1185, "\u2581italian": 1186, "\u2581ft": 1187, "\u2581skin": 1188, "\u2581martin": 1189, "\u2581happened": 1190, "\u2581cold": 1191, "bo": 1192, "15": 1193, "\u2581republic": 1194, "\u2581goal": 1195, "\u2581whose": 1196, "\u2581via": 1197, "et": 1198, "\u2581conference": 1199, "\u2581certain": 1200, "\u2581earlier": 1201, "\u2581command": 1202, "ting": 1203, "\u2581onto": 1204, "\u2581job": 1205, "\u2581collection": 1206, "\u2581clear": 1207, "wood": 1208, "\u2581student": 1209, "li": 1210, "\u2581novel": 1211, "\u2581nearly": 1212, "\u2581los": 1213, "\u2581opening": 1214, "\u2581reason": 1215, "\u2581ma": 1216, "\u2581medal": 1217, "old": 1218, "\u2581moving": 1219, "\u2581attention": 1220, "\u2581security": 1221, "\u258150": 1222, "\u2581gun": 1223, "rs": 1224, "ham": 1225, "lin": 1226, "\u2581cover": 1227, "\u2581foreign": 1228, "sa": 1229, "\u2581industry": 1230, "\u2581date": 1231, "\u2581camp": 1232, "all": 1233, "\u2581older": 1234, "\u2581meeting": 1235, "\u2581standard": 1236, "\u2581unit": 1237, "\u2581trade": 1238, "\u2581chest": 1239, "\u2581stated": 1240, "\u2581hadn": 1241, "\u2581systems": 1242, "\u2581fingers": 1243, "\u2581guy": 1244, "can": 1245, "\u2581key": 1246, "\u25811999": 1247, "\u2581library": 1248, "\u2581feeling": 1249, "\u2581families": 1250, "q": 1251, "ler": 1252, "\u2581husband": 1253, "\u2581regional": 1254, "\u2581meet": 1255, "\u2581primary": 1256, "\u2581pain": 1257, "\u2581girls": 1258, "\u2581sense": 1259, "\u2581chapter": 1260, "\u2581stand": 1261, "\u258126": 1262, "mer": 1263, "sen": 1264, "\u2581wouldn": 1265, "\u2581everyone": 1266, "\u2581source": 1267, "\u2581governor": 1268, "\u2581lived": 1269, "not": 1270, "\u2581africa": 1271, "\u2581ended": 1272, "\u2581spanish": 1273, "\u258128": 1274, "\u2581native": 1275, "\u2581anyone": 1276, "\u2581introduced": 1277, "\u2581heavy": 1278, "\u2581complete": 1279, "\u2581success": 1280, "based": 1281, "\u2581airport": 1282, "ad": 1283, "ive": 1284, "\u2581shows": 1285, "\u2581mountain": 1286, "ul": 1287, "\u2581standing": 1288, "\u2581test": 1289, "\u2581regular": 1290, "ous": 1291, "\u2581forced": 1292, "mo": 1293, "led": 1294, "\u2581port": 1295, "\u2581prince": 1296, "\u2581entered": 1297, "\u258127": 1298, "off": 1299, "\u2581successful": 1300, "\u2581question": 1301, "\u2581read": 1302, "age": 1303, "\u2581foundation": 1304, "\u2581contract": 1305, "11": 1306, "ah": 1307, "\u2581movie": 1308, "\u2581twenty": 1309, "\u2581historic": 1310, "\u2581operations": 1311, "\u2581commission": 1312, "\u2581prior": 1313, "\u2581author": 1314, "\u25811998": 1315, "ten": 1316, "\u2581limited": 1317, "\u2581channel": 1318, "\u2581personal": 1319, "out": 1320, "\u2581plant": 1321, "\u2581edition": 1322, "20": 1323, "\u2581mc": 1324, "\u2581cast": 1325, "ally": 1326, "\u2581die": 1327, "\u25811960": 1328, "\u2581dance": 1329, "\u2581report": 1330, "\u2581da": 1331, "\u2581ka": 1332, "ized": 1333, "\u2581forest": 1334, "\u2581couple": 1335, "let": 1336, "\u2581holding": 1337, "\u2581texas": 1338, "\u2581castle": 1339, "id": 1340, "\u2581parts": 1341, "\u2581weeks": 1342, "\u2581previously": 1343, "\u2581scored": 1344, "\u2581practice": 1345, "au": 1346, "\u2581shook": 1347, "\u2581active": 1348, "\u2581ask": 1349, "\u2581glass": 1350, "\u2581additional": 1351, "\u2581economic": 1352, "\u2581se": 1353, "\u2581property": 1354, "les": 1355, "\u2581eye": 1356, "\u2581approximately": 1357, "\u2581lee": 1358, "\u2581individual": 1359, "\u2581chicago": 1360, "\u2581traditional": 1361, "\u2581speed": 1362, "\u2581covered": 1363, "\u2581makes": 1364, "\u2581culture": 1365, "\u2581themselves": 1366, "car": 1367, "\u2581whom": 1368, "\u2581understand": 1369, "\u2581wood": 1370, "\u25811996": 1371, "\u2581pay": 1372, "ate": 1373, "\u2581buildings": 1374, "\u2581immediately": 1375, "\u2581hope": 1376, "\u2581singer": 1377, "ak": 1378, "\u2581male": 1379, "\u2581meant": 1380, "\u2581access": 1381, "\u2581manager": 1382, "\u2581caught": 1383, "\u2581takes": 1384, "va": 1385, "\u2581secretary": 1386, "now": 1387, "ti": 1388, "\u2581wrong": 1389, "\u2581required": 1390, "\u2581nine": 1391, "\u2581ice": 1392, "\u2581navy": 1393, "\u2581attended": 1394, "\u2581shoulder": 1395, "\u2581ex": 1396, "\u2581paper": 1397, "\u2581units": 1398, "\u2581fa": 1399, "\u2581direction": 1400, "\u2581decision": 1401, "\u2581lady": 1402, "like": 1403, "\u2581chair": 1404, "\u2581catholic": 1405, "\u2581engine": 1406, "\u2581edge": 1407, "\u2581mission": 1408, "**": 1409, "with": 1410, "\u2581structure": 1411, "\u25811997": 1412, "\u2581parliament": 1413, "\u2581winning": 1414, "lo": 1415, "side": 1416, "\u258140": 1417, "\u2581view": 1418, "14": 1419, "\u2581defeated": 1420, "\u2581producer": 1421, "\u2581starting": 1422, "\u2581mar": 1423, "\u2581step": 1424, "\u2581neck": 1425, "ford": 1426, "ted": 1427, "\u2581computer": 1428, "\u2581relationship": 1429, "est": 1430, "\u2581stadium": 1431, "per": 1432, "19": 1433, "\u2581offered": 1434, "mi": 1435, "ey": 1436, "\u2581doesn": 1437, "\u2581giving": 1438, "\u2581commercial": 1439, "\u2581thinking": 1440, "\u2581bass": 1441, "\u2581break": 1442, "way": 1443, "\u2581nature": 1444, "\u2581evidence": 1445, "\u2581championships": 1446, "\u2581slowly": 1447, "\u2581problem": 1448, "\u2581studied": 1449, "\u2581quite": 1450, "\u2581ready": 1451, "\u2581executive": 1452, "\u2581operation": 1453, "\u2581hotel": 1454, "\u2581watch": 1455, "\u2581helped": 1456, "\u2581musical": 1457, "\u2581ha": 1458, "\u2581highway": 1459, "\u2581dis": 1460, "\u2581runs": 1461, "\u2581writer": 1462, "\u2581window": 1463, "\u2581ago": 1464, "\u2581figure": 1465, "\u2581walk": 1466, "\u2581owned": 1467, "\u2581appearance": 1468, "\u2581generally": 1469, "\u2581reach": 1470, "\u2581managed": 1471, "\u2581whether": 1472, "fa": 1473, "\u2581location": 1474, "\u2581assembly": 1475, "\u2581length": 1476, "\u2581pass": 1477, "\u2581temple": 1478, "\u2581annual": 1479, "\u2581inter": 1480, "\u2581municipality": 1481, "\u2581assistant": 1482, "\u25811992": 1483, "\u2581metal": 1484, "\u25811995": 1485, "\u2581policy": 1486, "\u2581review": 1487, "\u2581isbn": 1488, "\u2581places": 1489, "\u2581surface": 1490, "\u2581films": 1491, "\u2581material": 1492, "\u2581drive": 1493, "\u2581double": 1494, "\u2581smiled": 1495, "\u2581experience": 1496, "\u2581caused": 1497, "\u2581particular": 1498, "\u2581bring": 1499, "\u2581hurt": 1500, "\u2581miss": 1501, "\u2581complex": 1502, "em": 1503, "\u2581chance": 1504, "\u2581significant": 1505, "\u2581del": 1506, "\u2581prize": 1507, "\u2581upper": 1508, "are": 1509, "\u2581listed": 1510, "\u2581wind": 1511, "\u2581fast": 1512, "\u2581issue": 1513, "ard": 1514, "\u258129": 1515, "\u2581cost": 1516, "\u2581legal": 1517, "\u2581remember": 1518, "\u2581ben": 1519, "ki": 1520, "\u2581carried": 1521, "\u2581soviet": 1522, "ir": 1523, "\u2581completely": 1524, "\u2581noted": 1525, "\u2581loss": 1526, "\u2581trust": 1527, "\u2581train": 1528, "\u2581mexico": 1529, "\u25811994": 1530, "\u2581corner": 1531, "\u2581companies": 1532, "\u2581plays": 1533, "\u25812010,": 1534, "\u2581becoming": 1535, "ny": 1536, "\u2581initially": 1537, "\u258131": 1538, "\u2581dropped": 1539, "\u2581joseph": 1540, "\u2581tree": 1541, "\u2581artists": 1542, "13": 1543, "how": 1544, "\u2581ireland": 1545, "\u2581youth": 1546, "\u2581goals": 1547, "\u2581numerous": 1548, "\u2581issues": 1549, "\u2581subject": 1550, "\u2581lives": 1551, "\u2581engineering": 1552, "\u2581financial": 1553, "\u2581highest": 1554, "\u2581mostly": 1555, "\u2581frank": 1556, "\u2581justice": 1557, "\u2581angeles": 1558, "\u2581winter": 1559, "\u2581lines": 1560, "\u2581famous": 1561, "\u2581pa": 1562, "\u2581empire": 1563, "\u2581nodded": 1564, "this": 1565, "ful": 1566, "\u25812011,": 1567, "\u2581arrived": 1568, "&": 1569, "\u2581believed": 1570, "\u2581champion": 1571, "\u2581mac": 1572, "\u2581spring": 1573, "\u2581actor": 1574, "\u2581victory": 1575, "\u2581recording": 1576, "\u2581zealand": 1577, "\u2581baby": 1578, "\u2581bishop": 1579, "\u2581feature": 1580, "king": 1581, "\u2581talking": 1582, "\u2581distance": 1583, "\u2581ko": 1584, "\u2581oil": 1585, "\u25811991": 1586, "\u2581income": 1587, "\u2581contains": 1588, "\u2581sex": 1589, "\u2581effect": 1590, "\u2581italy": 1591, "\u2581ball": 1592, "\u2581ancient": 1593, "chi": 1594, "ish": 1595, "ies": 1596, "\u2581related": 1597, "\u2581associated": 1598, "\u2581straight": 1599, "\u2581create": 1600, "\u2581launched": 1601, "\u2581retired": 1602, "\u2581administration": 1603, "\u25812,": 1604, "\u2581suddenly": 1605, "\u2581township": 1606, "\u2581bo": 1607, "wa": 1608, "\u25811993": 1609, "\u2581stars": 1610, "\u2581guard": 1611, "\u2581lu": 1612, "\u2581except": 1613, "\u2581virginia": 1614, "mar": 1615, "ji": 1616, "\u2581month": 1617, "\u2581score": 1618, "\u2581mass": 1619, "\u2581mm": 1620, "\u2581prime": 1621, "\u2581represented": 1622, "\u2581answer": 1623, "\u2581comes": 1624, "\u2581beach": 1625, "\u2581boys": 1626, "\u2581response": 1627, "\u25812012,": 1628, "ana": 1629, "\u2581junior": 1630, "\u2581religious": 1631, "\u2581beautiful": 1632, "\u2581tracks": 1633, "\u2581watched": 1634, "sh": 1635, "jo": 1636, "\u2581*": 1637, "po": 1638, "\u2581theory": 1639, "\u2581edward": 1640, "\u2581mom": 1641, "\u2581grew": 1642, "\u2581yes": 1643, "\u2581increased": 1644, "\u2581greek": 1645, "\u25812013,": 1646, "\u2581commander": 1647, "\u2581activities": 1648, "\u2581box": 1649, "\u2581stories": 1650, "cha": 1651, "\u2581basketball": 1652, "\u2581particularly": 1653, "\u25812009,": 1654, "\u2581allow": 1655, "\u2581congress": 1656, "\u2581fellow": 1657, "\u2581ca": 1658, "\u2581simply": 1659, "im": 1660, "\u2581sky": 1661, "\u2581larger": 1662, "\u2581terms": 1663, "pe": 1664, "\u2581color": 1665, "su": 1666, "\u2581cell": 1667, "\u2581historical": 1668, "ated": 1669, "\u2581brothers": 1670, "\u2581hour": 1671, "\u2581waiting": 1672, "ina": 1673, "ger": 1674, "\u2581pop": 1675, "\u2581sign": 1676, "\u2581overall": 1677, "\u2581remains": 1678, "\u2581cause": 1679, "\u2581journal": 1680, "\u2581winner": 1681, "house": 1682, "\u2581bus": 1683, "\u2581rate": 1684, "\u2581dan": 1685, "\u2581branch": 1686, "\u2581doctor": 1687, "\u2581regiment": 1688, "\u2581minor": 1689, "\u2581flight": 1690, "\u2581scene": 1691, "\u2581gas": 1692, "\u2581changes": 1693, "her": 1694, "\u25812014,": 1695, "\u2581poor": 1696, "\u2581crew": 1697, "\u2581majority": 1698, "\u2581secret": 1699, "\u2581happy": 1700, "\u2581beyond": 1701, "\u2581failed": 1702, "\u2581directly": 1703, "\u2581selected": 1704, "\u2581okay": 1705, "ex": 1706, "fi": 1707, "\u2581louis": 1708, "tv": 1709, "\u2581tower": 1710, "\u2581legs": 1711, "ang": 1712, "\u2581mike": 1713, "yes": 1714, "\u25811950": 1715, "\u2581problems": 1716, "\u2581matches": 1717, "\u2581store": 1718, "\u2581fear": 1719, "\u2581likely": 1720, "\u2581shown": 1721, "\u2581marriage": 1722, "\u2581touch": 1723, "\u2581subsequently": 1724, "\u2581separate": 1725, "\u2581programs": 1726, "\u2581expected": 1727, "\u2581peace": 1728, "\u2581horse": 1729, "\u25812015,": 1730, "berg": 1731, "\u2581bi": 1732, "\u2581cultural": 1733, "ze": 1734, "\u2581attempt": 1735, "\u2581results": 1736, "\u2581heat": 1737, "ac": 1738, "\u2581transport": 1739, "\u2581follow": 1740, "\u25812008,": 1741, "\u2581sleep": 1742, "head": 1743, "\u2581direct": 1744, "\u2581cd": 1745, "\u2581des": 1746, "\u2581variety": 1747, "\u2581letter": 1748, "\u2581foot": 1749, "\u2581florida": 1750, "\u2581iron": 1751, "\u25811989": 1752, "\u2581plans": 1753, "\u2581nearby": 1754, "vi": 1755, "\u2581wing": 1756, "\u2581chairman": 1757, "\u2581rural": 1758, "\u2581gaze": 1759, "\u2581wait": 1760, "\u2581rules": 1761, "30": 1762, "\u2581weight": 1763, "\u2581recent": 1764, "\u2581ring": 1765, "\u2581characters": 1766, "kin": 1767, "\u2581fair": 1768, "\u2581irish": 1769, "\u2581truth": 1770, "\u2581agreed": 1771, "\u2581pretty": 1772, "\u2581travel": 1773, "\u2581perhaps": 1774, "\u2581na": 1775, "\u2581focus": 1776, "\u25811988": 1777, "\u2581democratic": 1778, "\u2581soldiers": 1779, "\u2581appears": 1780, "\u2581ni": 1781, "\u2581status": 1782, "\u2581operated": 1783, "\u2581genus": 1784, "\u2581islands": 1785, "tic": 1786, "\u2581dad": 1787, "\u2581closer": 1788, "\u2581spread": 1789, "\u2581vi": 1790, "\u2581wales": 1791, "\u2581lack": 1792, "\u2581therefore": 1793, "\u2581claimed": 1794, "\u2581chart": 1795, "\u2581drama": 1796, "\u2581code": 1797, "see": 1798, "\u2581serving": 1799, "\u2581beat": 1800, "\u2581creek": 1801, "\u2581joe": 1802, "\u2581expression": 1803, "lan": 1804, "\u2581sitting": 1805, "\u2581pennsylvania": 1806, "ho": 1807, "\u2581wild": 1808, "\u2581pan": 1809, "\u2581academic": 1810, "25": 1811, "\u25812016,": 1812, "\u2581meaning": 1813, "\u2581jones": 1814, "\u2581lay": 1815, "\u2581continue": 1816, "\u2581names": 1817, "\u2581parish": 1818, "\u2581pacific": 1819, "ru": 1820, "\u2581vice": 1821, "hi": 1822, "ol": 1823, "\u2581scott": 1824, "\u2581physical": 1825, "\u2581normal": 1826, "\u2581supported": 1827, "\u2581rule": 1828, "ization": 1829, "ant": 1830, "\u2581presented": 1831, "\u2581kiss": 1832, "\u2581chi": 1833, "\u2581safe": 1834, "\u2581editor": 1835, "\u2581stared": 1836, "\u2581choice": 1837, "\u2581ill": 1838, "\u2581increase": 1839, "\u2581mayor": 1840, "han": 1841, "\u2581broke": 1842, "\u25812007,": 1843, "\u2581flat": 1844, "\u2581baseball": 1845, "\u2581remaining": 1846, "\u2581slightly": 1847, "\u2581discovered": 1848, "\u2581fighting": 1849, "bar": 1850, "dy": 1851, "\u2581goes": 1852, "\u2581honor": 1853, "\u2581text": 1854, "\u2581piece": 1855, "\u2581soft": 1856, "ary": 1857, "\u2581situation": 1858, "\u2581pressure": 1859, "\u2581leg": 1860, "\u2581troops": 1861, "\u2581border": 1862, "gen": 1863, "\u2581responsible": 1864, "\u2581join": 1865, "\u2581metres": 1866, "\u2581iii": 1867, "\u2581dream": 1868, "\u2581composed": 1869, "\u2581referred": 1870, "\u2581cases": 1871, "\u2581golden": 1872, "\u2581mo": 1873, "\u2581hundred": 1874, "\u2581sorry": 1875, "\u2581reading": 1876, "\u2581opera": 1877, "\u2581judge": 1878, "\u2581looks": 1879, "ating": 1880, "\u2581spain": 1881, "\u2581defense": 1882, "\u2581individuals": 1883, "\u2581serve": 1884, "war": 1885, "\u2581multiple": 1886, "there": 1887, "\u2581digital": 1888, "\u2581multi": 1889, "\u2581exactly": 1890, "\u2581share": 1891, "ci": 1892, "\u2581appear": 1893, "\u2581greater": 1894, "\u2581build": 1895, "\u2581realized": 1896, "mann": 1897, "class": 1898, "\u2581label": 1899, "\u2581fifth": 1900, "\u25811986": 1901, "\u2581russia": 1902, "\u2581specific": 1903, "\u2581firm": 1904, "\u2581ordered": 1905, "\u2581charge": 1906, "\u2581jean": 1907, "\u2581showed": 1908, "\u2581bob": 1909, "\u2581bag": 1910, "ster": 1911, "\u2581memory": 1912, "\u2581trees": 1913, "town": 1914, "\u2581influence": 1915, "\u2581emperor": 1916, "\u25811987": 1917, "\u2581knowledge": 1918, "ps": 1919, "\u2581cities": 1920, "\u2581block": 1921, "\u2581semi": 1922, "\u2581value": 1923, "who": 1924, "\u2581piano": 1925, "\u2581maria": 1926, "\u2581provides": 1927, "\u2581corps": 1928, "\u2581sa": 1929, "\u25811984": 1930, "\u2581earned": 1931, "\u2581latter": 1932, "5%": 1933, "\u2581prison": 1934, "\u2581simple": 1935, "\u2581windows": 1936, "\u2581farm": 1937, "\u2581rain": 1938, "tra": 1939, "\u2581machine": 1940, "21": 1941, "\u2581squadron": 1942, "\u2581filled": 1943, "ier": 1944, "\u2581note": 1945, "\u2581duke": 1946, "\u2581houses": 1947, "\u2581chris": 1948, "\u2581kitchen": 1949, "\u2581exchange": 1950, "\u2581steel": 1951, "\u2581dog": 1952, "\u2581watching": 1953, "\u2581daily": 1954, "\u2581territory": 1955, "\u2581difficult": 1956, "\u2581en": 1957, "back": 1958, "\u2581authority": 1959, "\u2581speak": 1960, "\u2581image": 1961, "\u2581oh": 1962, "io": 1963, "\u2581brain": 1964, "\u2581sand": 1965, "\u2581lies": 1966, "\u2581cannot": 1967, "\u2581fish": 1968, "je": 1969, "\u2581presence": 1970, "\u2581kilometres": 1971, "\u2581throat": 1972, "\u2581stepped": 1973, "\u2581removed": 1974, "\u2581daniel": 1975, "\u2581britain": 1976, "\u2581spoke": 1977, "\u25812017,": 1978, "\u25813,": 1979, "\u2581urban": 1980, "\u25811985": 1981, "ut": 1982, "\u2581politician": 1983, "\u2581extended": 1984, "\u2581products": 1985, "\u2581garden": 1986, "\u2581newspaper": 1987, "\u2581bell": 1988, "\u2581recently": 1989, "\u2581function": 1990, "\u2581growing": 1991, "\u2581broadcast": 1992, "port": 1993, "\u2581offer": 1994, "more": 1995, "24": 1996, "\u2581forms": 1997, "\u2581nations": 1998, "\u2581spot": 1999, "\u2581jr": 2000, "23": 2001, "\u2581article": 2002, "\u2581draw": 2003, "\u2581workers": 2004, "que": 2005, "\u2581amount": 2006, "\u2581pushed": 2007, "\u2581cat": 2008, "\u2581alexander": 2009, "\u2581easy": 2010, "\u2581mainly": 2011, "\u2581smaller": 2012, "\u2581path": 2013, "\u2581jewish": 2014, "\u2581host": 2015, "\u2581carolina": 2016, "\u2581par": 2017, "\u2581vote": 2018, "\u2581yellow": 2019, "\u2581acquired": 2020, "\u2581walls": 2021, "\u2581agreement": 2022, "\u2581broken": 2023, "\u2581ministry": 2024, "\u2581boston": 2025, "ov": 2026, "\u2581uses": 2027, "\u2581estate": 2028, "\u2581risk": 2029, "\u2581gray": 2030, "american": 2031, "00": 2032, "\u2581promoted": 2033, "\u2581ships": 2034, "\u2581planned": 2035, "\u2581pick": 2036, "\u2581mile": 2037, "\u2581minute": 2038, "\u2581conditions": 2039, "\u2581poland": 2040, "\u2581officers": 2041, "\u2581rich": 2042, "\u2581consists": 2043, "\u2581grade": 2044, "\u2581mrs": 2045, "\u2581solo": 2046, "\u2581era": 2047, "\u2581grant": 2048, "\u2581max": 2049, "\u2581johnson": 2050, "pur": 2051, "\u2581z": 2052, "\u2581males": 2053, "\u2581avenue": 2054, "\u2581serious": 2055, "\u2581card": 2056, "\u2581protection": 2057, "\u2581sort": 2058, "\u2581warm": 2059, "\u2581storm": 2060, "\u2581marine": 2061, "\u2581global": 2062, "gar": 2063, "\u2581sight": 2064, "\u2581elements": 2065, "\u2581sit": 2066, "\u2581tom": 2067, "\u2581latin": 2068, "\u2581soul": 2069, "\u2581stock": 2070, "\u2581campus": 2071, "\u2581notable": 2072, "\u2581mad": 2073, "\u258165": 2074, "ron": 2075, "\u2581elizabeth": 2076, "they": 2077, "\u2581seeing": 2078, "\u2581save": 2079, "\u2581olympics": 2080, "\u2581intended": 2081, "\u25811983": 2082, "\u258160": 2083, "\u2581leaves": 2084, "\u25812006,": 2085, "\u2581francisco": 2086, "\u2581online": 2087, "\u2581twice": 2088, "\u2581evening": 2089, "ring": 2090, "\u2581percent": 2091, "\u2581sweet": 2092, "\u2581li": 2093, "\u2581walking": 2094, "red": 2095, "\u2581constructed": 2096, "\u2581proposed": 2097, "\u2581electric": 2098, "\u2581whatever": 2099, "\u2581shortly": 2100, "\u2581turning": 2101, "ber": 2102, "\u2581corporation": 2103, "\u2581initial": 2104, "\u2581counter": 2105, "\u2581finish": 2106, "\u2581perfect": 2107, "\u2581safety": 2108, "\u2581method": 2109, "\u2581von": 2110, "mon": 2111, "\u2581lieutenant": 2112, "\u2581beside": 2113, "\u2581picked": 2114, "\u2581drew": 2115, "\u2581numbers": 2116, "\u2581dutch": 2117, "\u2581affairs": 2118, "ite": 2119, "ella": 2120, "\u2581moon": 2121, "\u2581search": 2122, "\u2581housing": 2123, "\u2581recognized": 2124, "\u2581basic": 2125, "\u2581reserve": 2126, "\u2581nor": 2127, "\u2581victoria": 2128, "\u2581bottom": 2129, "\u2581females": 2130, "\u2581purpose": 2131, "\u2581split": 2132, "\u2581et": 2133, "\u2581jersey": 2134, "\u2581ban": 2135, "\u25811982": 2136, "\u2581cars": 2137, "\u2581stations": 2138, "\u2581visit": 2139, "which": 2140, "\u2581approach": 2141, "ju": 2142, "\u2581defeat": 2143, "\u2581ocean": 2144, "\u2581williams": 2145, "\u2581pair": 2146, "\u2581competed": 2147, "\u2581memorial": 2148, "\u2581mount": 2149, "\u2581effort": 2150, "\u2581picture": 2151, "\u2581contemporary": 2152, "tor": 2153, "\u2581magic": 2154, "\u2581alex": 2155, "\u2581orchestra": 2156, "\u2581highly": 2157, "\u2581graduated": 2158, "pi": 2159, "min": 2160, "bi": 2161, "\u2581price": 2162, "\u2581industrial": 2163, "\u2581replied": 2164, "\u2581ability": 2165, "\u2581remain": 2166, "\u2581ya": 2167, "\u2581administrative": 2168, "\u2581strength": 2169, "\u2581jim": 2170, "\u2581nation": 2171, "ns": 2172, "\u2581ahead": 2173, "\u2581infantry": 2174, "\u2581residents": 2175, "\u2581account": 2176, "\u2581powerful": 2177, "\u2581trial": 2178, "\u2581racing": 2179, "\u2581acting": 2180, "\u2581equipment": 2181, "\u2581actress": 2182, "\u2581destroyed": 2183, "\u2581hockey": 2184, "uk": 2185, "ney": 2186, "ium": 2187, "\u25811979": 2188, "\u2581ho": 2189, "\u2581quality": 2190, "\u2581glanced": 2191, "\u2581paid": 2192, "\u25814,": 2193, "\u2581fort": 2194, "ran": 2195, "\u2581protect": 2196, "\u2581teacher": 2197, "\u2581mixed": 2198, "\u2581loved": 2199, "\u2581settled": 2200, "\u2581pull": 2201, "\u2581treatment": 2202, "\u2581contact": 2203, "\u2581revealed": 2204, "\u2581lo": 2205, "\u2581seems": 2206, "\u2581scotland": 2207, "\u2581birth": 2208, "\u2581brand": 2209, "\u2581nice": 2210, "\u2581mentioned": 2211, "\u2581issued": 2212, "\u2581produce": 2213, "\u2581simon": 2214, "\u25811930": 2215, "\u2581levels": 2216, "\u2581accepted": 2217, "\u2581shut": 2218, "\u2581households": 2219, "\u2581escape": 2220, "\u2581positive": 2221, "\u2581potential": 2222, "\u2581der": 2223, "\u2581snow": 2224, "\u2581tax": 2225, "\u2581younger": 2226, "\u2581traffic": 2227, "\u2581steve": 2228, "\u25811981": 2229, "\u2581extra": 2230, "\u2581quick": 2231, "\u2581growth": 2232, "\u2581literature": 2233, "gi": 2234, "\u2581republican": 2235, "\u2581za": 2236, "\u2581crime": 2237, "\u2581mill": 2238, "\u2581basis": 2239, "\u2581rail": 2240, "\u2581fleet": 2241, "hu": 2242, "\u2581register": 2243, "\u2581murder": 2244, "\u2581median": 2245, "\u2581gallery": 2246, "\u2581please": 2247, "\u2581appearances": 2248, "\u25811972": 2249, "\u2581vol": 2250, "\u2581tonight": 2251, "\u2581boat": 2252, "\u2581buried": 2253, "\u2581concert": 2254, "\u2581advanced": 2255, "why": 2256, "\u2581primarily": 2257, "\u2581para": 2258, "\u25811978": 2259, "\u2581seem": 2260, "\u2581impact": 2261, "\u2581jan": 2262, "\u2581tall": 2263, "west": 2264, "star": 2265, "\u2581joint": 2266, "\u2581agent": 2267, "ola": 2268, "har": 2269, "\u2581ke": 2270, "\u2581website": 2271, "\u2581scientific": 2272, "\u2581dry": 2273, "\u2581needs": 2274, "\u2581rear": 2275, "\u2581slow": 2276, "\u2581secondary": 2277, "\u2581sydney": 2278, "\u2581principal": 2279, "\u2581senate": 2280, "\u2581losing": 2281, "\u2581asian": 2282, "\u2581polish": 2283, "len": 2284, "\u2581israel": 2285, "\u2581tri": 2286, "22": 2287, "\u2581transferred": 2288, "\u2581tu": 2289, "50": 2290, "ent": 2291, "\u2581effects": 2292, "\u2581supposed": 2293, "ku": 2294, "\u25811940": 2295, "\u2581berlin": 2296, "ab": 2297, "\u2581leaned": 2298, "\u2581naval": 2299, "\u2581whispered": 2300, "\u2581capacity": 2301, "\u2581entertainment": 2302, "\u2581jackson": 2303, "ver": 2304, "\u2581trip": 2305, "\u2581software": 2306, "\u2581environment": 2307, "\u2581damage": 2308, "\u25811974": 2309, "\u2581volume": 2310, "\u2581elections": 2311, "\u2581races": 2312, "\u2581bbc": 2313, "\u2581projects": 2314, "\u2581matt": 2315, "\u2581candidate": 2316, "\u2581flying": 2317, "\u2581thick": 2318, "\u2581entrance": 2319, "\u2581officially": 2320, "\u2581guess": 2321, "\u2581brigade": 2322, "du": 2323, "\u2581screen": 2324, "\u25811976": 2325, "\u2581freedom": 2326, "\u2581200": 2327, "net": 2328, "\u2581huge": 2329, "\u2581ear": 2330, "\u2581content": 2331, "\u2581seasons": 2332, "\u2581medicine": 2333, "\u2581planning": 2334, "\u2581engineer": 2335, "\u2581settlement": 2336, "\u2581fully": 2337, "\u2581grabbed": 2338, "1%": 2339, "\u2581featuring": 2340, "\u2581nick": 2341, "gan": 2342, "\u2581unable": 2343, "\u2581agency": 2344, "bu": 2345, "\u2581questions": 2346, "\u2581suggested": 2347, "\u2581begin": 2348, "\u2581tears": 2349, "\u2581divided": 2350, "\u2581easily": 2351, "\u2581gives": 2352, "\u2581po": 2353, "ek": 2354, "\u2581teeth": 2355, "\u2581railroad": 2356, "\u2581prominent": 2357, "\u2581activity": 2358, "\u2581taught": 2359, "\u2581dedicated": 2360, "\u2581champions": 2361, "\u2581rugby": 2362, "\u2581finger": 2363, "\u2581coffee": 2364, "\u2581fought": 2365, "ius": 2366, "\u2581wave": 2367, "\u2581columbia": 2368, "\u2581none": 2369, "\u2581silence": 2370, "law": 2371, "\u2581roof": 2372, "ung": 2373, "\u2581product": 2374, "\u2581ray": 2375, "\u2581andrew": 2376, "lu": 2377, "\u2581necessary": 2378, "\u2581headquarters": 2379, "\u2581drums": 2380, "\u25811977": 2381, "\u2581steps": 2382, "\u2581animal": 2383, "\u2581happen": 2384, "\u2581fox": 2385, "\u2581mountains": 2386, "\u2581alongside": 2387, "\u25811968": 2388, "\u2581killing": 2389, "\u2581cm": 2390, "\u2581singles": 2391, "\u2581te": 2392, "\u2581ohio": 2393, "\u2581asia": 2394, "\u2581background": 2395, "\u2581efforts": 2396, "sky": 2397, "\u2581palace": 2398, "\u2581leadership": 2399, "\u2581headed": 2400, "\u2581quiet": 2401, "\u2581pen": 2402, "\u25811945": 2403, "\u2581challenge": 2404, "6%": 2405, "\u2581adam": 2406, "fer": 2407, "yo": 2408, "26": 2409, "\u2581owner": 2410, "\u2581captured": 2411, "\u2581rome": 2412, "ski": 2413, "\u2581fun": 2414, "\u2581follows": 2415, "ance": 2416, "\u2581partner": 2417, "ship": 2418, "\u25811975": 2419, "\u2581concept": 2420, "\u2581interview": 2421, "\u2581motion": 2422, "kar": 2423, "\u2581empty": 2424, "\u2581driver": 2425, "stone": 2426, "\u2581guest": 2427, "\u2581compared": 2428, "ker": 2429, "+": 2430, "\u2581har": 2431, "\u2581purchased": 2432, "\u2581renamed": 2433, "\u2581notes": 2434, "\u2581applied": 2435, "\u2581enemy": 2436, "\u2581occurred": 2437, "\u2581cha": 2438, "\u25811973": 2439, "\u2581sport": 2440, "\u2581shoulders": 2441, "\u2581typically": 2442, "ev": 2443, "\u2581jazz": 2444, "rin": 2445, "\u2581formation": 2446, "\u2581technical": 2447, "\u2581bought": 2448, "\u2581georgia": 2449, "\u2581facilities": 2450, "end": 2451, "\u2581platform": 2452, "\u2581refused": 2453, "\u2581deputy": 2454, "\u2581operating": 2455, "\u2581liberal": 2456, "\u25811920": 2457, "\u2581revolution": 2458, "\u2581comedy": 2459, "ff": 2460, "\u2581combined": 2461, "\u2581mis": 2462, "tan": 2463, "\u2581zone": 2464, "\u2581battalion": 2465, "\u2581wearing": 2466, "\u2581assigned": 2467, "\u2581count": 2468, "\u2581painting": 2469, "\u2581surrounding": 2470, "\u2581participated": 2471, "\u2581draft": 2472, "tu": 2473, "\u2581premier": 2474, "\u2581tar": 2475, "\u2581crowd": 2476, "\u2581learning": 2477, "\u2581page": 2478, "\u2581conducted": 2479, "\u25812005,": 2480, "\u2581alive": 2481, "\u2581declared": 2482, "*": 2483, "\u2581learn": 2484, "\u2581returning": 2485, "\u2581offers": 2486, "\u258145": 2487, "\u2581laid": 2488, "\u2581pointed": 2489, "\u2581santa": 2490, "\u2581pieces": 2491, "\u2581kong": 2492, "\u2581lifted": 2493, "\u2581ver": 2494, "\u2581analysis": 2495, "\u2581holy": 2496, "\u2581telling": 2497, "\u25811971": 2498, "oc": 2499, "zo": 2500, "\u2581prevent": 2501, "\u2581creation": 2502, "\u2581michigan": 2503, "then": 2504, "\u2581taylor": 2505, "\u2581knowing": 2506, "\u2581critical": 2507, "\u25815,": 2508, "\u2581scottish": 2509, "\u2581supreme": 2510, "vin": 2511, "\u258132": 2512, "\u2581tony": 2513, "\u2581fan": 2514, "\u2581disease": 2515, "\u2581letters": 2516, "tur": 2517, "\u2581organized": 2518, "\u2581chosen": 2519, "45": 2520, "\u2581dam": 2521, "\u2581animals": 2522, "\u2581distribution": 2523, "\u2581commonly": 2524, "\u2581widely": 2525, "\u2581stephen": 2526, "\u2581adopted": 2527, "\u2581gained": 2528, "\u2581rise": 2529, "\u2581laughed": 2530, "\u2581drug": 2531, "\u2581isn": 2532, "\u25811969": 2533, "\u2581hong": 2534, "\u2581combat": 2535, "\u2581wish": 2536, "\u2581suffered": 2537, "\u2581su": 2538, "\u2581shape": 2539, "\u2581teaching": 2540, "ised": 2541, "dar": 2542, "\u2581crown": 2543, "\u2581leaders": 2544, "09": 2545, "\u2581shop": 2546, "\u2581theater": 2547, "ria": 2548, "over": 2549, "\u2581beneath": 2550, "\u2581types": 2551, "ap": 2552, "zi": 2553, "mp": 2554, "\u2581calling": 2555, "\u2581languages": 2556, "\u2581bowl": 2557, "[": 2558, "bra": 2559, "3%": 2560, "\u2581tongue": 2561, "\u2581unknown": 2562, "\u2581usa": 2563, "\u2581falls": 2564, "af": 2565, "\u2581resources": 2566, "27": 2567, "\u2581yards": 2568, "che": 2569, "\u2581sides": 2570, "\u2581wilson": 2571, "\u2581trouble": 2572, "also": 2573, "\u2581tim": 2574, "\u2581parties": 2575, "\u2581bodies": 2576, "\u25811967": 2577, "\u2581strange": 2578, "\u2581ep": 2579, "\u2581weather": 2580, "\u2581christ": 2581, "\u2581seconds": 2582, "\u2581labor": 2583, "\u2581communities": 2584, "\u2581iran": 2585, "\u2581motor": 2586, "\u2581connected": 2587, "\u2581receive": 2588, "\u2581serves": 2589, "\u2581dress": 2590, "\u2581clothes": 2591, "\u2581shared": 2592, "\u2581q": 2593, "op": 2594, "\u2581format": 2595, "\u2581footballer": 2596, "\u2581wolf": 2597, "\u2581sales": 2598, "35": 2599, "\u2581yu": 2600, "ck": 2601, "40": 2602, "2%": 2603, "\u2581focused": 2604, "\u2581cap": 2605, "\u2581relief": 2606, "\u2581architecture": 2607, "\u2581sunday": 2608, "\u2581tells": 2609, "\u2581drink": 2610, "\u2581imperial": 2611, "\u2581episodes": 2612, "cho": 2613, "\u2581arthur": 2614, "era": 2615, "\u2581sons": 2616, "\u2581transfer": 2617, "\u2581tight": 2618, "\u2581unique": 2619, "\u2581internet": 2620, "9%": 2621, "\u2581continues": 2622, "\u2581sciences": 2623, "\u2581surprise": 2624, "vo": 2625, "\u2581earl": 2626, "\u2581kids": 2627, "ise": 2628, "\u2581apart": 2629, "\u2581lap": 2630, "\u2581check": 2631, "\u2581claim": 2632, "\u2581becomes": 2633, "\u2581politics": 2634, "\u25813:": 2635, "om": 2636, "\u2581cancer": 2637, "\u2581christmas": 2638, "\u2581ken": 2639, "\u2581jo": 2640, "\u2581sharp": 2641, "air": 2642, "\u2581household": 2643, "\u2581fc": 2644, "\u2581plants": 2645, "\u2581facility": 2646, "\u2581eric": 2647, "\u2581pilot": 2648, "\u2581relations": 2649, "\u2581quarter": 2650, "ini": 2651, "\u2581representative": 2652, "7%": 2653, "\u2581weapons": 2654, "ou": 2655, "\u2581stomach": 2656, "\u2581trail": 2657, "\u2581avoid": 2658, "\u2581spirit": 2659, "\u2581send": 2660, "\u2581begins": 2661, "\u2581sources": 2662, "\u2581audience": 2663, "\u2581vehicle": 2664, "from": 2665, "\u2581wonder": 2666, "\u2581wine": 2667, "\u2581labour": 2668, "\u2581reaching": 2669, "\u2581carry": 2670, "\u2581bronze": 2671, "\u2581wasnt": 2672, "\u2581bright": 2673, "\u2581providing": 2674, "\u2581albums": 2675, "\u2581alternative": 2676, "\u25811964": 2677, "\u2581pat": 2678, "\u2581largely": 2679, "\u2581youre": 2680, "new": 2681, "\u2581grey": 2682, "\u2581ba": 2683, "\u2581classes": 2684, "yeah": 2685, "van": 2686, "gy": 2687, "\u2581density": 2688, "\u2581nose": 2689, "\u2581silent": 2690, "\u2581learned": 2691, "\u2581situated": 2692, "\u2581salt": 2693, "\u258135": 2694, "\u2581illinois": 2695, "nes": 2696, "\u2581setting": 2697, "\u2581brief": 2698, "\u2581shirt": 2699, "\u2581cool": 2700, "long": 2701, "\u2581phase": 2702, "\u2581environmental": 2703, "ara": 2704, "\u2581defence": 2705, "\u2581harry": 2706, "\u2581chamber": 2707, "4%": 2708, "\u2581ku": 2709, "\u2581angel": 2710, "\u2581noticed": 2711, "\u2581jose": 2712, "\u2581olympic": 2713, "28": 2714, "\u2581worth": 2715, "\u2581founder": 2716, "\u2581kid": 2717, "\u2581thirty": 2718, "\u2581allowing": 2719, "\u2581fame": 2720, "\u2581heritage": 2721, "\u2581etc": 2722, "ng": 2723, "\u2581seats": 2724, "\u2581nominated": 2725, "\u2581bc": 2726, "2007": 2727, "\u2581cricket": 2728, "san": 2729, "\u2581brian": 2730, "cy": 2731, "\u2581classic": 2732, "\u2581promotion": 2733, "\u2581determined": 2734, "\u2581conversation": 2735, "\u2581reduced": 2736, "\u2581powers": 2737, "29": 2738, "\u2581marked": 2739, "pro": 2740, "\u2581web": 2741, "\u2581fit": 2742, "\u2581granted": 2743, "\u2581estimated": 2744, "\u2581clean": 2745, "\u2581bear": 2746, "\u2581equal": 2747, "\u2581broad": 2748, "\u2581eat": 2749, "\u2581vision": 2750, "2010": 2751, "\u2581twelve": 2752, "2008": 2753, "\u2581+": 2754, "\u25811966": 2755, "\u25811965": 2756, "\u2581write": 2757, "\u2581korea": 2758, "just": 2759, "\u2581connection": 2760, "\u2581models": 2761, "ging": 2762, "\u2581holds": 2763, "\u2581khan": 2764, "\u2581attacked": 2765, "\u2581expanded": 2766, "\u2581ali": 2767, "8%": 2768, "\u2581si": 2769, "\u25816,": 2770, "\u2581newly": 2771, "\u2581independence": 2772, "\u2581vampire": 2773, "\u2581anyway": 2774, "\u2581circle": 2775, "\u2581guys": 2776, "ris": 2777, "\u2581exhibition": 2778, "ot": 2779, "\u2581fund": 2780, "ram": 2781, "\u2581generation": 2782, "\u2581reviews": 2783, "\u2581grace": 2784, "\u2581toronto": 2785, "\u2581billion": 2786, "ray": 2787, "\u2581uncle": 2788, "ren": 2789, "\u2581francis": 2790, "\u2581stayed": 2791, "\u2581entry": 2792, "dan": 2793, "\u2581opposite": 2794, "\u2581sounds": 2795, "tz": 2796, "\u2581interior": 2797, "where": 2798, "\u2581armed": 2799, "\u2581signal": 2800, "\u2581reference": 2801, "\u2581message": 2802, "\u2581develop": 2803, "\u2581drop": 2804, "\u2581lewis": 2805, "board": 2806, "\u2581davis": 2807, "\u2581sar": 2808, "\u2581massachusetts": 2809, "\u2581claims": 2810, "\u2581defined": 2811, "\u2581hosted": 2812, "\u2581reports": 2813, "\u2581mal": 2814, "ial": 2815, "ig": 2816, "yan": 2817, "\u2581squad": 2818, "ez": 2819, "\u2581respectively": 2820, "2006": 2821, "\u2581unlike": 2822, "\u2581anna": 2823, "\u2581critics": 2824, "kan": 2825, "ward": 2826, "\u2581cor": 2827, "\u2581clubs": 2828, "ries": 2829, "\u2581enter": 2830, "water": 2831, "\u2581mu": 2832, "\u2581sexual": 2833, "\u2581yourself": 2834, "2005": 2835, "\u2581ne": 2836, "\u2581supply": 2837, "\u2581bird": 2838, "\u2581rank": 2839, "\u2581humans": 2840, "\u2581difference": 2841, "\u2581confirmed": 2842, "\u2581ram": 2843, "\u2581turns": 2844, "\u2581oxford": 2845, "\u2581wants": 2846, "\u2581ways": 2847, "\u2581passing": 2848, "2009": 2849, "\u2581lie": 2850, "ee": 2851, "\u2581constitution": 2852, "ken": 2853, "ble": 2854, "\u2581fly": 2855, "\u2581organizations": 2856, "east": 2857, "\u2581chain": 2858, "\u2581sixth": 2859, "\u2581dinner": 2860, "\u2581fields": 2861, "ica": 2862, "\u2581missing": 2863, "tin": 2864, "ii": 2865, "\u2581programme": 2866, "\u2581brazil": 2867, "\u2581narrow": 2868, "\u2581kim": 2869, "\u2581philadelphia": 2870, "\u2581978": 2871, "\u2581intelligence": 2872, "\u2581respect": 2873, "\u2581condition": 2874, "\u2581dean": 2875, "\u2581tradition": 2876, "nt": 2877, "\u25812000,": 2878, "\u2581possibly": 2879, "\u2581apartment": 2880, "\u2581fuel": 2881, "\u2581keeping": 2882, "ik": 2883, "\u2581core": 2884, "\u2581clearly": 2885, "\u2581barely": 2886, "80": 2887, "\u2581citizens": 2888, "\u2581identified": 2889, "\u2581rare": 2890, "\u2581driving": 2891, "ska": 2892, "\u2581opportunity": 2893, "\u2581entirely": 2894, "\u2581materials": 2895, "\u2581municipal": 2896, "\u2581explained": 2897, "\u2581eu": 2898, "\u2581micro": 2899, "art": 2900, "\u2581opposition": 2901, "\u2581reality": 2902, "\u2581representatives": 2903, "\u25812018,": 2904, "ari": 2905, "dis": 2906, "\u2581damn": 2907, "\u2581pale": 2908, "\u2581guns": 2909, "\u2581afraid": 2910, "\u2581desk": 2911, "\u2581faculty": 2912, "nie": 2913, "\u2581succeeded": 2914, "\u25817,": 2915, "\u2581fu": 2916, "\u2581mix": 2917, "47": 2918, "\u2581tone": 2919, "\u2581shit": 2920, "\u25811944": 2921, "\u2581votes": 2922, "\u2581resulted": 2923, "\u2581jason": 2924, "\u2581attorney": 2925, "\u2581lose": 2926, "\u2581resulting": 2927, "\u2581alliance": 2928, "known": 2929, "\u2581conflict": 2930, "\u2581pressed": 2931, "\u2581reasons": 2932, "\u2581haven": 2933, "\u2581cells": 2934, "\u2581target": 2935, "\u2581creating": 2936, "\u2581covers": 2937, "\u25812004,": 2938, "km": 2939, "ence": 2940, "\u2581solid": 2941, "\u2581map": 2942, "\u2581princess": 2943, "\u2581hunter": 2944, "\u2581ride": 2945, "\u2581colonel": 2946, "\u2581height": 2947, "\u2581surprised": 2948, "\u2581catch": 2949, "\u2581sad": 2950, "\u2581thin": 2951, "ize": 2952, "\u2581albert": 2953, "\u2581roles": 2954, "\u2581performing": 2955, "\u2581truck": 2956, "\u2581figures": 2957, "\u2581rolled": 2958, "\u2581ryan": 2959, "\u2581sword": 2960, "\u2581suit": 2961, "\u2581authorities": 2962, "\u2581cemetery": 2963, "\u2581pakistan": 2964, "\u2581allows": 2965, "\u2581injury": 2966, "\u2581trains": 2967, "down": 2968, "\u2581ontario": 2969, "\u2581hat": 2970, "\u2581fur": 2971, "\u258180": 2972, "\u2581cant": 2973, "\u2581speech": 2974, "\u2581laws": 2975, "\u2581oldest": 2976, "\u2581criminal": 2977, "\u2581documentary": 2978, "\u2581maximum": 2979, "\u2581portion": 2980, "ning": 2981, "\u2581trans": 2982, "\u2581federation": 2983, "07": 2984, "\u2581perform": 2985, "\u2581origin": 2986, "\u2581orange": 2987, "ric": 2988, "\u2581ranked": 2989, "\u2581failure": 2990, "\u2581heavily": 2991, "sch": 2992, "\u2581staring": 2993, "\u258118,": 2994, "century": 2995, "\u2581thousand": 2996, "\u2581kg": 2997, "\u2581journey": 2998, "\u2581express": 2999, "\u2581doors": 3000, "\u2581roll": 3001, "\u2581conservative": 3002, "qui": 3003, "\u2581shall": 3004, "\u2581task": 3005, "\u2581reaction": 3006, "\u2581finding": 3007, "\u2581titled": 3008, "\u2581ja": 3009, "\u2581application": 3010, "\u2581walter": 3011, "\u2581existence": 3012, "\u2581contest": 3013, "pen": 3014, "burg": 3015, "\u2581inc": 3016, "\u2581ki": 3017, "\u25811962": 3018, "wan": 3019, "88": 3020, "tus": 3021, "\u2581miller": 3022, "\u2581greatest": 3023, "\u25811963": 3024, "\u258124,": 3025, "01": 3026, "\u2581planet": 3027, "\u2581neither": 3028, "\u2581calls": 3029, "dra": 3030, "ura": 3031, "\u2581permanent": 3032, "\u2581500": 3033, "\u2581buy": 3034, "\u2581adult": 3035, "\u2581acres": 3036, "\u2581titles": 3037, "\u2581economy": 3038, "\u2581composer": 3039, "\u2581atlantic": 3040, "\u2581cape": 3041, "\u2581display": 3042, "\u2581nuclear": 3043, "\u2581palm": 3044, "\u2581climate": 3045, "\u2581netherlands": 3046, "\u2581fans": 3047, "\u2581obtained": 3048, "\u2581gets": 3049, "2000": 3050, "\u2581laugh": 3051, "did": 3052, "\u2581handle": 3053, "\u2581inspired": 3054, "\u2581officials": 3055, "\u2581photo": 3056, "\u2581hills": 3057, "85": 3058, "\u2581peak": 3059, "get": 3060, "\u2581swedish": 3061, "\u2581positions": 3062, "\u2581doubt": 3063, "\u2581thoughts": 3064, "\u2581religion": 3065, "\u2581attempted": 3066, "\u2581pool": 3067, "\u2581canal": 3068, "\u2581sarah": 3069, "\u2581poet": 3070, "\u2581ny": 3071, "ft": 3072, "gu": 3073, "\u2581northwest": 3074, "\u2581pope": 3075, "\u2581educational": 3076, "\u2581hide": 3077, "\u2581actions": 3078, "yl": 3079, "\u2581attacks": 3080, "\u2581crossed": 3081, "\u2581remembered": 3082, "\u2581apparently": 3083, "2004": 3084, "ok": 3085, "\u2581frequently": 3086, "\u2581convention": 3087, "\u2581op": 3088, "\u2581classical": 3089, "\u2581landing": 3090, "part": 3091, "\u2581abandoned": 3092, "\u2581passenger": 3093, "\u2581answered": 3094, "\u2581object": 3095, "\u2581aid": 3096, "2011": 3097, "\u2581wear": 3098, "08": 3099, "\u2581chin": 3100, "\u2581faith": 3101, "\u2581arrested": 3102, "\u2581sri": 3103, "\u2581pictures": 3104, "\u2581worse": 3105, "\u2581falling": 3106, "\u2581publishing": 3107, "\u2581auto": 3108, "\u2581relatively": 3109, "\u2581faced": 3110, "\u2581korean": 3111, "hr": 3112, "\u2581centuries": 3113, "\u2581lyrics": 3114, "\u2581mexican": 3115, "\u2581poetry": 3116, "\u2581internal": 3117, "\u2581shadow": 3118, "\u2581ending": 3119, "\u2581visited": 3120, "\u2581jesus": 3121, "\u2581kar": 3122, "\u2581plus": 3123, "ven": 3124, "32": 3125, "\u2581gar": 3126, "idae": 3127, "\u2581vehicles": 3128, "\u2581factory": 3129, "light": 3130, "\u2581row": 3131, "point": 3132, "\u2581ash": 3133, "\u2581supporting": 3134, "\u2581qualified": 3135, "\u2581bio": 3136, "\u2581chapel": 3137, "\u25818,": 3138, "\u2581scoring": 3139, "\u2581effective": 3140, "\u2581cu": 3141, "\u2581wa": 3142, "\u2581programming": 3143, "\u2581threw": 3144, "\u2581coat": 3145, "\u2581entitled": 3146, "\u2581subsequent": 3147, "\u25811942": 3148, "\u2581existing": 3149, "\u2581desire": 3150, "\u258190": 3151, "\u2581nu": 3152, "\u2581achieved": 3153, "\u2581starring": 3154, "\u2581selection": 3155, "\u2581graduate": 3156, "\u2581flag": 3157, "\u2581interested": 3158, "lis": 3159, "\u2581drawn": 3160, "\u2581fashion": 3161, "sha": 3162, "ists": 3163, "\u2581pink": 3164, "90": 3165, "bury": 3166, "\u2581acts": 3167, "\u2581ge": 3168, "run": 3169, "\u2581pet": 3170, "ros": 3171, "\u2581sector": 3172, "\u2581soccer": 3173, "\u2581duty": 3174, "\u2581jane": 3175, "\u2581publication": 3176, "\u2581philosophy": 3177, "\u2581dar": 3178, "\u2581domestic": 3179, "\u2581fresh": 3180, "ping": 3181, "\u2581exist": 3182, "\u2581bu": 3183, "\u2581theme": 3184, "when": 3185, "iz": 3186, "\u2581showing": 3187, "ita": 3188, "\u2581worry": 3189, "\u2581otherwise": 3190, "\u2581ju": 3191, "ud": 3192, "\u2581investigation": 3193, "\u2581gene": 3194, "\u2581methods": 3195, "des": 3196, "\u2581occupied": 3197, "nan": 3198, "\u2581cheek": 3199, "\u2581performances": 3200, "\u258170": 3201, "\u2581reform": 3202, "hand": 3203, "\u2581orders": 3204, "\u25811943": 3205, "pan": 3206, "\u2581skills": 3207, "\u2581waited": 3208, "\u2581fiction": 3209, "\u2581elementary": 3210, "ach": 3211, "2012": 3212, "\u2581grow": 3213, "\u2581philip": 3214, "\u2581evil": 3215, "48": 3216, "\u2581stuff": 3217, "\u2581address": 3218, "\u2581literary": 3219, "some": 3220, "\u2581wet": 3221, "\u2581knight": 3222, "\u2581hate": 3223, "\u2581briefly": 3224, "\u2581comic": 3225, "lon": 3226, "\u2581invited": 3227, "\u2581tiny": 3228, "\u2581hearing": 3229, "\u2581category": 3230, "tes": 3231, "\u2581designated": 3232, "\u2581expansion": 3233, "\u2581funding": 3234, "\u2581lip": 3235, "\u2581carl": 3236, "\u2581kissed": 3237, "\u2581missed": 3238, "nik": 3239, "\u2581streets": 3240, "\u2581mobile": 3241, "\u2581causing": 3242, "\u2581formerly": 3243, "\u2581starts": 3244, "\u2581couldnt": 3245, "\u2581incident": 3246, "illa": 3247, "\u2581wooden": 3248, "\u2581sweden": 3249, "\u2581push": 3250, "\u2581credit": 3251, "ino": 3252, "\u2581electronic": 3253, "\u2581ty": 3254, "\u2581establishment": 3255, "\u2581spend": 3256, "\u2581behavior": 3257, "ding": 3258, "\u2581sites": 3259, "\u2581understanding": 3260, "\u25811961": 3261, "\u2581lying": 3262, "\u2581sal": 3263, "good": 3264, "\u2581attempts": 3265, "\u258110,": 3266, "\u2581folk": 3267, "\u2581prepared": 3268, "\u2581darkness": 3269, "\u2581identity": 3270, "\u2581explain": 3271, "rie": 3272, "\u2581pp": 3273, "86": 3274, "\u25811946": 3275, "\u2581tea": 3276, "04": 3277, "\u2581sin": 3278, "ong": 3279, "\u25811948": 3280, "\u2581versions": 3281, "dale": 3282, "75": 3283, "\u2581restaurant": 3284, "\u2581gang": 3285, "ette": 3286, "\u2581bureau": 3287, "\u2581gain": 3288, "\u2581details": 3289, "\u2581wake": 3290, "\u2581communication": 3291, "\u2581jeff": 3292, "\u2581southeast": 3293, "\u2581patrick": 3294, "\u2581slid": 3295, "\u25811959": 3296, "\u2581admitted": 3297, "\u2581copies": 3298, "\u2581sale": 3299, "\u2581violence": 3300, "\u2581purchase": 3301, "ag": 3302, "\u2581pulling": 3303, "\u2581billboard": 3304, "\u2581chose": 3305, "\u2581anne": 3306, "\u25811956": 3307, "\u2581ultimately": 3308, "tion": 3309, "\u2581spin": 3310, "var": 3311, "\u2581flow": 3312, "\u2581col": 3313, "\u2581advantage": 3314, "\u2581gate": 3315, "\u2581rising": 3316, "ett": 3317, "70": 3318, "ec": 3319, "\u2581bedroom": 3320, "\u2581jaw": 3321, "gate": 3322, "\u2581pu": 3323, "\u2581speaking": 3324, "2003": 3325, "bit": 3326, "zy": 3327, "\u2581crazy": 3328, "ky": 3329, "\u25811958": 3330, "\u2581statement": 3331, "\u2581regions": 3332, "\u2581strike": 3333, "\u2581agricultural": 3334, "izing": 3335, "\u2581camera": 3336, "\u2581formal": 3337, "\u2581architect": 3338, "\u2581dragon": 3339, "\u2581promise": 3340, "2002": 3341, "\u2581dangerous": 3342, "\u2581circuit": 3343, "\u2581sell": 3344, "\u2581liked": 3345, "\u2581carrying": 3346, "\u2581val": 3347, "\u2581temperature": 3348, "\u2581wedding": 3349, "\u2581bal": 3350, "\u2581accident": 3351, "\u2581sick": 3352, "\u2581flowers": 3353, "\u2581cambridge": 3354, "\u2581priest": 3355, "\u2581inhabitants": 3356, "\u2581aired": 3357, "\u2581journalist": 3358, "\u25819,": 3359, "\u25811957": 3360, "\u2581jay": 3361, "\u2581artillery": 3362, "mm": 3363, "\u2581standards": 3364, "\u2581angry": 3365, "ative": 3366, "tri": 3367, "\u2581closely": 3368, "2013": 3369, "06": 3370, "\u2581smoke": 3371, "\u258136": 3372, "\u2581belt": 3373, "60": 3374, "\u2581anymore": 3375, "\u2581articles": 3376, "val": 3377, "\u2581guide": 3378, "\u2581asking": 3379, "\u2581communications": 3380, "\u2581wrestling": 3381, "\u2581bush": 3382, "\u2581tag": 3383, "cc": 3384, "\u2581singing": 3385, "\u2581extensive": 3386, "\u2581referee": 3387, "\u2581anger": 3388, "\u2581presidential": 3389, "\u2581employed": 3390, "\u2581budget": 3391, "\u2581cash": 3392, "\u2581shi": 3393, "\u2581launch": 3394, "\u2581struck": 3395, "\u2581receiving": 3396, "\u2581pocket": 3397, "\u2581gay": 3398, "79": 3399, "\u2581shock": 3400, "sp": 3401, "\u2581mirror": 3402, "rus": 3403, "\u258111,": 3404, "ida": 3405, "\u2581noise": 3406, "\u2581plate": 3407, "\u2581smell": 3408, "tis": 3409, "\u2581besides": 3410, "\u2581lights": 3411, "39": 3412, "\u2581cabinet": 3413, "\u2581loud": 3414, "\u2581sets": 3415, "\u2581trained": 3416, "\u25812003,": 3417, "\u25814:": 3418, "\u2581winners": 3419, "\u25811941": 3420, "pp": 3421, "\u2581northeast": 3422, "\u2581junction": 3423, "\u2581tail": 3424, "\u2581increasing": 3425, "ible": 3426, "\u2581bachelor": 3427, "\u2581bond": 3428, "\u2581guards": 3429, "cal": 3430, "\u2581survey": 3431, "\u2581proved": 3432, "\u2581wings": 3433, "sel": 3434, "\u2581afternoon": 3435, "del": 3436, "\u2581contained": 3437, "\u2581cole": 3438, "\u25811952": 3439, "\u2581accept": 3440, "\u2581sr": 3441, "ela": 3442, "ani": 3443, "\u2581howard": 3444, "\u2581introduction": 3445, "\u2581poly": 3446, "\u2581legislative": 3447, "ide": 3448, "\u2581institutions": 3449, "\u2581tomorrow": 3450, "\u2581ends": 3451, "\u2581gro": 3452, "\u2581cathedral": 3453, "tel": 3454, "\u2581progress": 3455, "\u2581melbourne": 3456, "ator": 3457, "\u2581visual": 3458, "\u2581pin": 3459, "\u2581ridge": 3460, "\u2581tan": 3461, "cher": 3462, "\u2581actual": 3463, "\u2581scale": 3464, "2001": 3465, "\u2581metropolitan": 3466, "\u2581regarding": 3467, "\u2581wore": 3468, "\u2581approved": 3469, "64": 3470, "\u2581va": 3471, "\u2581bur": 3472, "\u2581chase": 3473, "ens": 3474, "\u25811947": 3475, "yard": 3476, "\u2581sought": 3477, "\u2581ideas": 3478, "\u2581antonio": 3479, "\u2581kevin": 3480, "\u2581weekly": 3481, "mal": 3482, "99": 3483, "\u2581moscow": 3484, "\u2581tunnel": 3485, "\u2581stands": 3486, "\u2581saturday": 3487, "\u2581commissioned": 3488, "pin": 3489, "bb": 3490, "\u2581touched": 3491, "ep": 3492, "\u2581somewhere": 3493, "\u2581converted": 3494, "\u2581arena": 3495, "ova": 3496, "\u2581worldwide": 3497, "\u2581dave": 3498, "\u2581opposed": 3499, "\u2581bow": 3500, "\u2581represent": 3501, "\u2581images": 3502, "\u2581containing": 3503, "\u2581studios": 3504, "\u2581communist": 3505, "\u2581crossing": 3506, "\u2581coal": 3507, "\u2581link": 3508, "\u2581fill": 3509, "\u2581kw": 3510, "\u2581shooting": 3511, "bel": 3512, "31": 3513, "\u2581recognition": 3514, "pre": 3515, "46": 3516, "ira": 3517, "\u2581concerned": 3518, "\u2581wondered": 3519, "\u2581villages": 3520, "\u2581mon": 3521, "\u2581morgan": 3522, "\u2581frame": 3523, "\u2581specifically": 3524, "\u2581ross": 3525, "66": 3526, "\u2581dvd": 3527, "shi": 3528, "\u2581brick": 3529, "\u2581pleasure": 3530, "\u2581thank": 3531, "\u2581anthony": 3532, "\u2581drawing": 3533, "\u258133": 3534, "\u2581fixed": 3535, "\u2581samuel": 3536, "ea": 3537, "\u2581choose": 3538, "\u2581glad": 3539, "\u2581hung": 3540, "\u2581oak": 3541, "\u2581cave": 3542, "\u2581retirement": 3543, "\u2581founding": 3544, "\u2581improve": 3545, "wing": 3546, "\u2581add": 3547, "\u2581neighborhood": 3548, "\u2581chemical": 3549, "\u2581cal": 3550, "\u2581notice": 3551, "first": 3552, "\u2581stupid": 3553, "set": 3554, "37": 3555, "\u2581wheel": 3556, "\u2581hal": 3557, "\u2581giant": 3558, "\u25811955": 3559, "\u2581pe": 3560, "\u2581developing": 3561, "\u2581calm": 3562, "\u2581consider": 3563, "02": 3564, "\u2581300": 3565, "\u2581lane": 3566, "\u2581turkey": 3567, "ice": 3568, "\u2581tank": 3569, "\u2581bat": 3570, "ano": 3571, "\u2581invasion": 3572, "\u2581resistance": 3573, "par": 3574, "\u2581ward": 3575, "\u2581taste": 3576, "65": 3577, "\u2581institution": 3578, "\u2581em": 3579, "\u2581fighter": 3580, "ow": 3581, "\u25811954": 3582, "\u2581sounded": 3583, "\u2581mental": 3584, "\u2581provincial": 3585, "\u2581patients": 3586, "\u2581constant": 3587, "\u2581charlie": 3588, "\u2581danger": 3589, "\u2581warning": 3590, "ena": 3591, "zer": 3592, "\u2581shell": 3593, "uri": 3594, "\u2581phil": 3595, "\u2581treaty": 3596, "\u2581consisted": 3597, "\u2581alan": 3598, "ile": 3599, "\u2581senator": 3600, "03": 3601, "wick": 3602, "\u2581threat": 3603, "\u2581han": 3604, "mus": 3605, "chan": 3606, "\u2581pack": 3607, "\u258134": 3608, "\u2581lit": 3609, "ball": 3610, "\u2581juan": 3611, "\u2581advance": 3612, "\u2581towns": 3613, "\u2581ceremony": 3614, "\u2581banks": 3615, "ye": 3616, "\u2581ye": 3617, "\u2581clark": 3618, "\u25811953": 3619, "\u2581knows": 3620, "0%": 3621, "ai": 3622, "\u258112,": 3623, "49": 3624, "\u2581somehow": 3625, "\u2581disc": 3626, "\u2581plane": 3627, "\u25811939": 3628, "\u2581funds": 3629, "\u2581concern": 3630, "ped": 3631, "\u2581assumed": 3632, "\u2581douglas": 3633, "\u2581observed": 3634, "\u2581writers": 3635, "\u2581twin": 3636, "\u2581tennis": 3637, "\u2581attached": 3638, "\u2581athletic": 3639, "\u2581roger": 3640, "\u2581personnel": 3641, "\u2581offices": 3642, "97": 3643, "\u2581emergency": 3644, "\u2581sur": 3645, "\u2581device": 3646, "\u2581broadcasting": 3647, "\u2581attendance": 3648, "worth": 3649, "\u2581minnesota": 3650, "\u2581grown": 3651, "\u2581weapon": 3652, "din": 3653, "\u2581favor": 3654, "\u2581rescue": 3655, "sk": 3656, "\u2581bringing": 3657, "\u2581hired": 3658, "\u2581engaged": 3659, "\u2581knees": 3660, "general": 3661, "\u2581rooms": 3662, "tal": 3663, "\u2581drove": 3664, "38": 3665, "\u2581arab": 3666, "tha": 3667, "\u2581mall": 3668, "\u2581thanks": 3669, "foot": 3670, "\u2581victor": 3671, "\u2581lawyer": 3672, "\u2581successfully": 3673, "\u2581collected": 3674, "\u2581allen": 3675, "\u2581stairs": 3676, "mu": 3677, "\u2581incorporated": 3678, "\u2581beauty": 3679, "69": 3680, "\u2581worried": 3681, "\u2581negative": 3682, "\u2581capture": 3683, "\u2581wrapped": 3684, "\u2581retrieved": 3685, "\u2581fe": 3686, "\u2581cry": 3687, "\u2581hip": 3688, "\u2581hidden": 3689, "\u2581occurs": 3690, "\u2581hoped": 3691, "bre": 3692, "\u2581grin": 3693, "\u2581familiar": 3694, "\u2581las": 3695, "\u2581contributed": 3696, "\u2581residence": 3697, "62": 3698, "use": 3699, "far": 3700, "\u2581singapore": 3701, "\u2581attend": 3702, "\u2581desert": 3703, "\u2581properties": 3704, "\u2581participate": 3705, "\u2581ltd": 3706, "ay": 3707, "ane": 3708, "\u2581investment": 3709, "\u2581contrast": 3710, "\u2581finance": 3711, "hl": 3712, "\u2581helping": 3713, "\u2581teachers": 3714, "\u2581hamilton": 3715, "\u2581employees": 3716, "\u2581contain": 3717, "\u2581finishing": 3718, "\u2581functions": 3719, "\u25811949": 3720, "\u2581quietly": 3721, "\u2581downtown": 3722, "\u2581session": 3723, "\u2581string": 3724, "ned": 3725, "=": 3726, "\u2581yo": 3727, "\u2581importance": 3728, "\u2581formula": 3729, "87": 3730, "\u2581manchester": 3731, "\u2581pattern": 3732, "\u2581combination": 3733, "two": 3734, "\u2581frederick": 3735, "\u2581surrounded": 3736, "\u2581philippines": 3737, "rah": 3738, "fe": 3739, "\u2581mode": 3740, "\u2581expressed": 3741, "\u2581$1": 3742, "ula": 3743, "\u2581occur": 3744, "elle": 3745, "\u2581determine": 3746, "\u2581papers": 3747, "\u2581plain": 3748, "\u258115,": 3749, "\u2581survived": 3750, "\u2581birds": 3751, "\u2581egypt": 3752, "2014": 3753, "\u2581inner": 3754, "\u2581items": 3755, "\u2581mor": 3756, "iv": 3757, "\u2581scheduled": 3758, "\u2581jordan": 3759, "\u25812002,": 3760, "\u2581iv": 3761, "vis": 3762, "\u2581moore": 3763, "\u2581walker": 3764, "\u2581joining": 3765, "\u2581stream": 3766, "\u2581applications": 3767, "\u2581kings": 3768, "\u2581billy": 3769, "\u2581examples": 3770, "istic": 3771, "\u2581request": 3772, "\u2581southwest": 3773, "\u2581seventh": 3774, "36": 3775, "56": 3776, "\u2581jake": 3777, "\u2581argued": 3778, "lar": 3779, "\u2581norwegian": 3780, "\u2581anderson": 3781, "\u2581sp": 3782, "work": 3783, "\u2581decades": 3784, "\u2581rush": 3785, "ua": 3786, "\u2581massive": 3787, "ston": 3788, "\u2581passes": 3789, "84": 3790, "\u2581gordon": 3791, "\u2581baron": 3792, "\u2581representing": 3793, "\u2581mention": 3794, "\u2581tie": 3795, "\u2581norway": 3796, "\u2581finds": 3797, "\u2581plot": 3798, "\u2581universe": 3799, "\u2581cook": 3800, "\u2581registered": 3801, "\u2581tied": 3802, "\u2581protected": 3803, "98": 3804, "\u2581thousands": 3805, "\u2581refers": 3806, "dr": 3807, "ities": 3808, "\u2581fruit": 3809, "\u2581painter": 3810, "\u2581sang": 3811, "ama": 3812, "\u25811951": 3813, "\u2581throw": 3814, "\u2581structures": 3815, "\u2581bomb": 3816, "bal": 3817, "\u2581forever": 3818, "\u2581tropical": 3819, "\u2581usual": 3820, "\u2581parallel": 3821, "bus": 3822, "\u2581transportation": 3823, "\u258114,": 3824, "stein": 3825, "\u2581loan": 3826, "\u2581softly": 3827, "74": 3828, "\u2581inches": 3829, "\u2581rob": 3830, "\u2581kansas": 3831, "\u2581manner": 3832, "\u2581cinema": 3833, "\u2581listen": 3834, "\u2581biggest": 3835, "95": 3836, "\u2581horses": 3837, "\u2581painted": 3838, "\u2581favorite": 3839, "die": 3840, "\u2581aside": 3841, "\u2581distinguished": 3842, "hill": 3843, "lie": 3844, "mes": 3845, "\u2581covering": 3846, "\u2581hunt": 3847, "\u2581austria": 3848, "ery": 3849, "\u2581certainly": 3850, "\u2581br": 3851, "\u2581amateur": 3852, "\u2581historian": 3853, "\u2581aware": 3854, "\u2581terminal": 3855, "\u2581forget": 3856, "\u2581dj": 3857, "\u2581hits": 3858, "state": 3859, "\u2581muslim": 3860, "\u2581resigned": 3861, "sc": 3862, "ming": 3863, "\u2581churches": 3864, "\u2581pra": 3865, "\u2581injured": 3866, "\u2581rev": 3867, "\u2581capable": 3868, "\u2581woods": 3869, "ich": 3870, "\u2581colonial": 3871, "\u2581districts": 3872, "\u2581putting": 3873, "\u2581typical": 3874, "\u2581gently": 3875, "\u2581jews": 3876, "89": 3877, "\u2581users": 3878, "\u2581underground": 3879, "top": 3880, "\u2581luke": 3881, "\u2581experienced": 3882, "\u258113,": 3883, "\u2581script": 3884, "aw": 3885, "\u25811900": 3886, "\u258121,": 3887, "\u2581demand": 3888, "1999": 3889, "\u2581vietnam": 3890, "63": 3891, "\u2581breaking": 3892, "\u2581file": 3893, "eo": 3894, "\u2581bor": 3895, "\u2581extension": 3896, "\u2581reign": 3897, "\u2581extremely": 3898, "\u2581fired": 3899, "\u2581arrival": 3900, "\u2581merged": 3901, "59": 3902, "\u2581commune": 3903, "may": 3904, "\u2581smooth": 3905, "level": 3906, "\u2581sum": 3907, "2015": 3908, "hey": 3909, "\u2581weak": 3910, "\u2581beer": 3911, "\u2581lands": 3912, "\u2581asks": 3913, "present": 3914, "ties": 3915, "\u2581objects": 3916, "\u2581anniversary": 3917, "\u2581scenes": 3918, "\u2581tries": 3919, "rich": 3920, "\u2581les": 3921, "\u258123,": 3922, "\u2581missouri": 3923, "\u2581till": 3924, "\u2581agriculture": 3925, "\u2581maintained": 3926, "\u2581influenced": 3927, "\u2581dynasty": 3928, "\u2581rolling": 3929, "\u2581horror": 3930, "\u2581backing": 3931, "\u2581factor": 3932, "\u2581paintings": 3933, "\u2581replace": 3934, "\u2581hoping": 3935, "\u2581jump": 3936, "\u2581burned": 3937, "\u2581jon": 3938, "\u2581borough": 3939, "\u2581kelly": 3940, "42": 3941, "\u2581indiana": 3942, "\u2581bull": 3943, "\u2581shore": 3944, "\u2581sisters": 3945, "\u25812001,": 3946, "\u2581promote": 3947, "\u2581dressed": 3948, "\u2581partnership": 3949, "\u2581regarded": 3950, "non": 3951, "dal": 3952, "\u2581decade": 3953, "\u258122,": 3954, "\u258126,": 3955, "\u2581roads": 3956, "\u2581mess": 3957, "tar": 3958, "\u2581controlled": 3959, "\u2581steam": 3960, "\u2581grass": 3961, "\u2581license": 3962, "54": 3963, "term": 3964, "34": 3965, "lock": 3966, "come": 3967, "\u2581und": 3968, "\u2581vocal": 3969, "including": 3970, "ph": 3971, "\u2581raise": 3972, "\u2581colorado": 3973, "\u2581dating": 3974, "\u2581compete": 3975, "wi": 3976, "\u2581educated": 3977, "\u2581smart": 3978, "\u2581yeah": 3979, "81": 3980, "\u2581derived": 3981, "gue": 3982, "nia": 3983, "mont": 3984, "\u2581bra": 3985, "\u2581metro": 3986, "cu": 3987, "\u2581handed": 3988, "\u2581conduct": 3989, "\u2581hole": 3990, "\u2581lock": 3991, "\u2581impossible": 3992, "000": 3993, "\u2581soldier": 3994, "\u2581ghost": 3995, "tro": 3996, "\u2581pot": 3997, "\u2581queensland": 3998, "\u2581improved": 3999, "\u2581ce": 4000, "\u2581jam": 4001, "\u2581delivered": 4002, "\u2581unless": 4003, "\u2581collaboration": 4004, "\u2581cloud": 4005, "\u2581marie": 4006, "\u2581realize": 4007, "\u2581protein": 4008, "72": 4009, "\u2581weekend": 4010, "\u2581locked": 4011, "\u2581outstanding": 4012, "\u2581wounded": 4013, "\u2581understood": 4014, "season": 4015, "\u2581engines": 4016, "\u2581rio": 4017, "\u2581karl": 4018, "\u258119,": 4019, "ks": 4020, "\u258128,": 4021, "53": 4022, "\u2581audio": 4023, "\u2581responsibility": 4024, "\u2581bath": 4025, "\u2581knife": 4026, "\u2581maintain": 4027, "ix": 4028, "\u2581charged": 4029, "\u2581sequence": 4030, "100": 4031, "\u2581maryland": 4032, "\u2581var": 4033, "\u2581golf": 4034, "\u2581oregon": 4035, "\u2581clay": 4036, "\u2581apple": 4037, "\u2581sara": 4038, "\u2581classification": 4039, "\u2581bottle": 4040, "\u2581wins": 4041, "\u2581diego": 4042, "\u2581crisis": 4043, "\u2581burning": 4044, "\u2581arizona": 4045, "\u2581composition": 4046, "\u2581causes": 4047, "33": 4048, "\u2581tennessee": 4049, "\u2581spoken": 4050, "\u2581carefully": 4051, "\u2581opinion": 4052, "\u2581dick": 4053, "\u2581boss": 4054, "\u2581operate": 4055, "\u2581aged": 4056, "\u2581indeed": 4057, "\u2581measure": 4058, "ban": 4059, "96": 4060, "\u2581deck": 4061, "\u2581ensure": 4062, "\u2581feed": 4063, "\u2581translation": 4064, "\u258127,": 4065, "\u2581installed": 4066, "\u2581assistance": 4067, "\u2581mur": 4068, "93": 4069, "\u2581values": 4070, "05": 4071, "\u2581margaret": 4072, "\u2581decide": 4073, "\u2581candidates": 4074, "82": 4075, "\u2581dates": 4076, "\u2581require": 4077, "\u2581wisconsin": 4078, "\u2581jacob": 4079, "\u2581organisation": 4080, "\u2581producing": 4081, "sur": 4082, "55": 4083, "\u2581trophy": 4084, "\u2581hy": 4085, "\u2581lincoln": 4086, "\u2581switzerland": 4087, "\u2581establish": 4088, "\u2581blues": 4089, "\u2581offering": 4090, "ability": 4091, "\u2581cards": 4092, "\u258130,": 4093, "\u2581gotten": 4094, "\u2581locations": 4095, "fu": 4096, "\u2581voted": 4097, "jan": 4098, "gon": 4099, "\u2581gi": 4100, "\u2581nfl": 4101, "life": 4102, "\u2581musician": 4103, "ser": 4104, "\u2581concrete": 4105, "\u2581shifted": 4106, "\u2581quebec": 4107, "ell": 4108, "\u258125,": 4109, "our": 4110, "\u2581ham": 4111, "\u2581israeli": 4112, "\u2581panel": 4113, "\u2581affected": 4114, "\u2581disappeared": 4115, "\u2581sha": 4116, "\u2581tired": 4117, "cut": 4118, "\u2581proper": 4119, "fo": 4120, "low": 4121, "\u25811936": 4122, "\u2581johnny": 4123, "yn": 4124, "\u2581accused": 4125, "\u2581worst": 4126, "\u2581gap": 4127, "\u2581jimmy": 4128, "\u2581mono": 4129, "78": 4130, "\u2581somewhat": 4131, "\u2581approached": 4132, "\u2581prix": 4133, "\u2581stores": 4134, "\u2581acid": 4135, "\u2581reduce": 4136, "\u2581bands": 4137, "\u2581bound": 4138, "\u2581musicians": 4139, "una": 4140, "\u2581context": 4141, "\u258116,": 4142, "\u2581fallen": 4143, "\u2581weren": 4144, "\u2581ph": 4145, "\u2581views": 4146, "\u2581normally": 4147, "\u2581hi": 4148, "was": 4149, "\u2581cycle": 4150, "\u2581indicated": 4151, "\u2581medium": 4152, "\u2581heads": 4153, "1998": 4154, "\u2581user": 4155, "\u25811918": 4156, "sie": 4157, "\u258138": 4158, "\u2581concluded": 4159, "\u2581consisting": 4160, "\u2581ann": 4161, "\u258142": 4162, "\u2581rick": 4163, "\u2581committed": 4164, "\u2581universities": 4165, "ika": 4166, "67": 4167, "1997": 4168, "\u2581associate": 4169, "\u2581turkish": 4170, "\u2581bruce": 4171, "\u2581universal": 4172, "\u2581fault": 4173, "\u2581ti": 4174, "\u2581pit": 4175, "aka": 4176, "\u2581stating": 4177, "\u2581demon": 4178, "\u2581shield": 4179, "\u2581organ": 4180, "win": 4181, "\u2581rough": 4182, "right": 4183, "\u2581flew": 4184, "ue": 4185, "\u2581expect": 4186, "\u2581houston": 4187, "\u2581fifteen": 4188, "\u2581liquid": 4189, "form": 4190, "\u2581cousin": 4191, "nis": 4192, "\u2581kate": 4193, "\u2581pi": 4194, "\u2581consecutive": 4195, "\u2581separated": 4196, "\u2581portuguese": 4197, "\u2581hollywood": 4198, "\u2581grounds": 4199, "\u2581sugar": 4200, "pu": 4201, "ology": 4202, "\u2581passengers": 4203, "\u25811938": 4204, "ben": 4205, "\u2581ethnic": 4206, "\u2581gift": 4207, "\u2581feelings": 4208, "\u2581adjacent": 4209, "\u2581odd": 4210, "\u2581fat": 4211, "\u2581techniques": 4212, "tell": 4213, "\u2581constituency": 4214, "nu": 4215, "\u2581mail": 4216, "\u2581regularly": 4217, "\u2581leon": 4218, "57": 4219, "\u2581prove": 4220, "ure": 4221, "\u2581defensive": 4222, "elli": 4223, "\u2581sudden": 4224, "\u2581insurance": 4225, "\u2581changing": 4226, "\u2581costs": 4227, "sey": 4228, "\u2581clock": 4229, "\u2581confused": 4230, "\u2581creative": 4231, "\u2581min": 4232, "\u2581faster": 4233, "\u2581benefit": 4234, "\u2581ms": 4235, "\u2581mini": 4236, "key": 4237, "\u2581ruled": 4238, "\u2581closing": 4239, "mel": 4240, "71": 4241, "ala": 4242, "\u2581mining": 4243, "\u2581sighed": 4244, "\u2581ser": 4245, "51": 4246, "\u2581riding": 4247, "\u2581bathroom": 4248, "burn": 4249, "\u2581fred": 4250, "\u2581repeated": 4251, "\u2581letting": 4252, "\u2581#1": 4253, "\u2581eleven": 4254, "\u2581option": 4255, "\u2581gear": 4256, "zen": 4257, "\u2581clan": 4258, "\u2581leads": 4259, "\u258120,": 4260, "zu": 4261, "\u2581appeal": 4262, "\u2581flesh": 4263, "\u2581mathematics": 4264, "\u2581tip": 4265, "\u2581lucky": 4266, "\u2581pure": 4267, "44": 4268, "iya": 4269, "\u2581fer": 4270, "\u2581parking": 4271, "ical": 4272, "\u2581ceiling": 4273, "\u25812:": 4274, "\u2581net": 4275, "\u2581scheme": 4276, "\u2581mat": 4277, "kh": 4278, "68": 4279, "\u2581persons": 4280, "\u2581rod": 4281, "\u2581crystal": 4282, "bed": 4283, "58": 4284, "\u2581meanwhile": 4285, "dia": 4286, "kov": 4287, "\u258117,": 4288, "such": 4289, "\u2581charter": 4290, "\u2581discovery": 4291, "\u2581childhood": 4292, "\u2581expedition": 4293, "\u258137": 4294, "\u2581solution": 4295, "pot": 4296, "hara": 4297, "\u2581jumped": 4298, "\u258129,": 4299, "\u2581arranged": 4300, "\u2581hay": 4301, "\u2581resolution": 4302, "\u2581sch": 4303, "\u2581threatened": 4304, "\u2581smiling": 4305, "\u2581burn": 4306, "ip": 4307, "\u2581diocese": 4308, "\u2581greece": 4309, "\u2581fo": 4310, "\u2581lunch": 4311, "\u2581pace": 4312, "\u2581swiss": 4313, "your": 4314, "\u2581secure": 4315, "\u2581hart": 4316, "\u2581moth": 4317, "\u2581horn": 4318, "\u2581tokyo": 4319, "\u25811937": 4320, "cia": 4321, "\u2581meters": 4322, "\u2581carter": 4323, "\u2581shaking": 4324, "\u2581facing": 4325, "\u2581storage": 4326, "92": 4327, "oo": 4328, "\u2581accompanied": 4329, "isation": 4330, "\u2581translated": 4331, "\u2581residential": 4332, "\u2581raw": 4333, "lus": 4334, "\u2581leather": 4335, "\u2581harris": 4336, "\u2581gabriel": 4337, "\u2581tele": 4338, "\u2581physics": 4339, "52": 4340, "los": 4341, "\u2581indicate": 4342, "\u2581lab": 4343, "\u2581copy": 4344, "\u2581schedule": 4345, "\u2581dust": 4346, "\u2581uniform": 4347, "\u2581index": 4348, "\u2581begun": 4349, "\u2581exit": 4350, "\u2581additionally": 4351, "\u2581matthew": 4352, "\u2581400": 4353, "\u2581150": 4354, "\u2581selling": 4355, "nee": 4356, "sia": 4357, "\u2581kha": 4358, "\u2581describes": 4359, "\u2581assault": 4360, "\u2581fin": 4361, "eh": 4362, "\u2581membership": 4363, "1990": 4364, "\u2581moments": 4365, "yer": 4366, "eng": 4367, "\u2581neo": 4368, "\u2581ga": 4369, "\u2581pal": 4370, "\u2581notably": 4371, "fl": 4372, "\u2581waist": 4373, "\u2581documents": 4374, "ata": 4375, "\u2581shoot": 4376, "\u2581saved": 4377, "\u2581rifle": 4378, "\u2581conservation": 4379, "\u2581gen": 4380, "style": 4381, "\u2581imagine": 4382, "\u2581ears": 4383, "\u258164": 4384, "\u2581soil": 4385, "take": 4386, "\u2581distributed": 4387, "\u2581landed": 4388, "\u2581arrest": 4389, "\u258141": 4390, "ae": 4391, "\u2581courses": 4392, "\u2581legend": 4393, "\u2581busy": 4394, "\u2581branches": 4395, "\u2581shah": 4396, "\u2581victims": 4397, "his": 4398, "\u2581ambassador": 4399, "\u2581montreal": 4400, "lia": 4401, "\u2581mph": 4402, "$": 4403, "lum": 4404, "ada": 4405, "\u2581norman": 4406, "\u2581destroy": 4407, "\u2581interests": 4408, "\u2581obviously": 4409, "\u2581enjoyed": 4410, "\u2581publications": 4411, "\u2581dreams": 4412, "\u2581counties": 4413, "lay": 4414, "ensis": 4415, "story": 4416, "pt": 4417, "\u2581breathing": 4418, "\u2581duties": 4419, "\u2581charlotte": 4420, "\u2581distinct": 4421, "\u2581kent": 4422, "world": 4423, "\u2581commonwealth": 4424, "\u2581kentucky": 4425, "\u2581businesses": 4426, "\u2581strategy": 4427, "\u2581meat": 4428, "\u2581hu": 4429, "\u2581cho": 4430, "\u2581testing": 4431, "\u2581pad": 4432, "\u2581flash": 4433, "\u2581pages": 4434, "\u2581kor": 4435, "76": 4436, "\u2581homes": 4437, "enberg": 4438, "\u2581lawrence": 4439, "73": 4440, "\u2581detroit": 4441, "\u2581degrees": 4442, "\u2581gary": 4443, "\u2581sq": 4444, "lam": 4445, "\u2581ron": 4446, "room": 4447, "\u2581earliest": 4448, "sson": 4449, "\u2581ottoman": 4450, "because": 4451, "\u2581willing": 4452, "\u2581landscape": 4453, "\u2581cable": 4454, "\u2581birthday": 4455, "\u2581correct": 4456, "\u2581roughly": 4457, "\u2581bid": 4458, "\u2581blow": 4459, "ew": 4460, "bert": 4461, "ified": 4462, "\u2581rachel": 4463, "\u2581fifty": 4464, "\u2581czech": 4465, "\u2581grip": 4466, "\u2581glen": 4467, "\u2581balance": 4468, "\u2581heaven": 4469, "\u2581rapid": 4470, "\u2581shift": 4471, "91": 4472, "\u2581jonathan": 4473, "type": 4474, "\u2581superior": 4475, "\u2581emma": 4476, "\u2581racial": 4477, "\u2581romantic": 4478, "\u2581christopher": 4479, "\u2581lb": 4480, "\u2581sing": 4481, "ale": 4482, "\u2581dear": 4483, "cin": 4484, "\u2581detective": 4485, "\u2581cooper": 4486, "\u2581bent": 4487, "1995": 4488, "\u2581continuing": 4489, "\u2581roy": 4490, "\u2581argentina": 4491, "\u2581document": 4492, "\u2581studying": 4493, "1996": 4494, "\u2581plastic": 4495, "\u2581limit": 4496, "\u2581graham": 4497, "\u2581charges": 4498, "41": 4499, "\u2581poverty": 4500, "\u2581sections": 4501, "ub": 4502, "\u2581debate": 4503, "\u2581villa": 4504, "\u2581hanging": 4505, "\u2581slipped": 4506, "\u2581instruments": 4507, "2016": 4508, "\u2581louisiana": 4509, "\u2581runner": 4510, "\u2581bin": 4511, "\u2581joy": 4512, "\u2581transition": 4513, "\u2581damaged": 4514, "\u2581owners": 4515, "\u2581islamic": 4516, "\u2581occupation": 4517, "\u2581tribe": 4518, "\u2581miami": 4519, "\u2581element": 4520, "\u2581stable": 4521, "bach": 4522, "\u2581hor": 4523, "\u2581agree": 4524, "\u2581medieval": 4525, "\u2581marshall": 4526, "mark": 4527, "\u25811999,": 4528, "\u2581colony": 4529, "\u2581reputation": 4530, "\u2581visitors": 4531, "\u2581economics": 4532, "\u2581occasionally": 4533, "\u2581fishing": 4534, "\u2581solar": 4535, "77": 4536, "\u2581praised": 4537, "\u2581severe": 4538, "\u2581cow": 4539, "\u2581socialist": 4540, "\u2581hundreds": 4541, "high": 4542, "\u2581relative": 4543, "\u2581lang": 4544, "\u25811919": 4545, "\u2581hang": 4546, "bridge": 4547, "\u2581criticism": 4548, "\u2581stuck": 4549, "och": 4550, "\u2581mel": 4551, "\u2581gender": 4552, "\u2581aunt": 4553, "\u2581operates": 4554, "\u2581shower": 4555, "\u2581matters": 4556, "sis": 4557, "\u2581successor": 4558, "\u25811908": 4559, "\u2581visible": 4560, "\u2581rice": 4561, "bs": 4562, "\u2581survive": 4563, "\u258148": 4564, "\u2581talent": 4565, "\u2581pri": 4566, "\u2581responded": 4567, "\u2581rhythm": 4568, "\u2581protest": 4569, "gun": 4570, "\u2581dublin": 4571, "gg": 4572, "\u2581kal": 4573, "\u2581truly": 4574, "\u2581whilst": 4575, "\u258144": 4576, "\u2581alice": 4577, "\u2581makeup": 4578, "under": 4579, "called": 4580, "\u2581franchise": 4581, "\u2581heading": 4582, "love": 4583, "\u2581memories": 4584, "\u2581fm": 4585, "\u2581kennedy": 4586, "\u2581manufacturing": 4587, "94": 4588, "\u2581existed": 4589, "\u2581respond": 4590, "\u2581promised": 4591, "\u2581ceo": 4592, "\u2581appropriate": 4593, "master": 4594, "\u2581rat": 4595, "\u25811911": 4596, "\u2581crash": 4597, "ib": 4598, "\u2581talked": 4599, "\u2581waste": 4600, "\u2581afterwards": 4601, "\u2581equivalent": 4602, "\u2581domain": 4603, "\u2581entering": 4604, "\u25811917": 4605, "\u2581zero": 4606, "\u2581tre": 4607, "\u2581kan": 4608, "\u2581colour": 4609, "\u2581replacement": 4610, "\u2581vs": 4611, "\u2581purposes": 4612, "\u2581singh": 4613, "oli": 4614, "\u2581fate": 4615, "ked": 4616, "\u2581restored": 4617, "\u2581electrical": 4618, "\u2581friday": 4619, "\u2581productions": 4620, "200": 4621, "ene": 4622, "\u2581soundtrack": 4623, "\u2581pine": 4624, "\u2581parliamentary": 4625, "\u2581dancing": 4626, "\u2581courts": 4627, "\u2581mp": 4628, "\u2581poem": 4629, "most": 4630, "\u2581blind": 4631, "\u2581offensive": 4632, "\u25811935": 4633, "ification": 4634, "ese": 4635, "cus": 4636, "\u2581nelson": 4637, "\u2581wanting": 4638, "free": 4639, "\u2581yard": 4640, "\u2581je": 4641, "\u2581scholars": 4642, "\u25811929": 4643, "43": 4644, "\u2581coastal": 4645, "\u2581eddie": 4646, "\u2581rating": 4647, "\u258149": 4648, "\u2581harvard": 4649, "\u25811890": 4650, "rock": 4651, "\u2581raf": 4652, "\u2581paused": 4653, "\u2581critic": 4654, "\u2581recordings": 4655, "\u25811914": 4656, "\u2581shake": 4657, "\u2581vast": 4658, "\u2581helen": 4659, "mond": 4660, "\u2581cavalry": 4661, "wer": 4662, "lic": 4663, "\u2581bone": 4664, "\u2581austin": 4665, "cap": 4666, "\u2581amongst": 4667, "\u2581honorary": 4668, "\u2581euro": 4669, "\u2581russell": 4670, "\u2581forty": 4671, "\u2581tools": 4672, "dic": 4673, "\u2581obvious": 4674, "\u2581loose": 4675, "tte": 4676, "\u2581marry": 4677, "\u2581symbol": 4678, "\u2581kat": 4679, "\u2581suicide": 4680, "\u2581remove": 4681, "\u2581rejected": 4682, "\u2581guitarist": 4683, "\u2581triple": 4684, "\u2581swimming": 4685, "\u2581arc": 4686, "\u2581speaker": 4687, "med": 4688, "\u2581achieve": 4689, "\u2581devices": 4690, "\u2581photography": 4691, "\u2581belgium": 4692, "\u2581ncaa": 4693, "\u2581coalition": 4694, "\u2581aviation": 4695, "\u2581enjoy": 4696, "\u2581struggle": 4697, "\u2581column": 4698, "\u2581measures": 4699, "\u2581temporary": 4700, "\u2581virgin": 4701, "\u2581hero": 4702, "yu": 4703, "\u2581burst": 4704, "\u2581manage": 4705, "\u2581unusual": 4706, "\u2581dallas": 4707, "\u2581danish": 4708, "five": 4709, "ons": 4710, "\u2581directors": 4711, "\u2581commissioner": 4712, "aki": 4713, "persian": 4714, "\u258175": 4715, "lee": 4716, "\u2581throne": 4717, "\u2581foster": 4718, "\u2581represents": 4719, "\u2581julian": 4720, "\u2581adding": 4721, "\u2581sean": 4722, "\u2581mag": 4723, "\u2581partners": 4724, "view": 4725, "\u25811910": 4726, "\u2581linked": 4727, "\u2581kick": 4728, "\u2581sc": 4729, "\u2581gil": 4730, "\u2581dun": 4731, "russian": 4732, "\u2581oklahoma": 4733, "cur": 4734, "\u2581mississippi": 4735, "83": 4736, "\u2581gulf": 4737, "\u2581peninsula": 4738, "\u2581subjects": 4739, "\u2581franklin": 4740, "\u2581nervous": 4741, "\u2581designer": 4742, "\u2581marketing": 4743, "\u2581gathered": 4744, "\u2581shin": 4745, "\u2581laboratory": 4746, "nor": 4747, "\u2581designs": 4748, "german": 4749, "\u2581extreme": 4750, "yama": 4751, "\u2581dc": 4752, "\u2581friendly": 4753, "hour": 4754, "\u2581laughing": 4755, "\u2581guilty": 4756, "\u2581grandfather": 4757, "\u2581depending": 4758, "\u25811933": 4759, "ante": 4760, "rum": 4761, "\u2581spell": 4762, "ved": 4763, "\u2581gardens": 4764, "\u2581resort": 4765, "\u2581parent": 4766, "\u2581luis": 4767, "\u2581bla": 4768, "\u2581gods": 4769, "\u2581waters": 4770, "\u2581climb": 4771, "bin": 4772, "\u2581adams": 4773, "\u2581clothing": 4774, "\u2581campbell": 4775, "\u2581factors": 4776, "\u2581sleeping": 4777, "\u2581carbon": 4778, "okay": 4779, "gh": 4780, "\u2581requires": 4781, "\u2581drugs": 4782, "\u2581eliminated": 4783, "\u2581grave": 4784, "\u2581beating": 4785, "\u2581requirements": 4786, "\u2581seattle": 4787, "\u2581stewart": 4788, "\u2581treated": 4789, "\u25811928": 4790, "\u2581carlos": 4791, "track": 4792, "\u2581print": 4793, "\u2581ru": 4794, "\u2581movies": 4795, "nic": 4796, "\u2581jet": 4797, "\u2581susan": 4798, "\u2581basin": 4799, "\u2581hans": 4800, "ably": 4801, "\u2581edited": 4802, "\u2581visiting": 4803, "\u2581robin": 4804, "\u2581rapidly": 4805, "\u2581comics": 4806, "\u2581wi": 4807, "\u2581wo": 4808, "\u2581harbor": 4809, "nar": 4810, "\u2581useful": 4811, "ct": 4812, "\u2581possibility": 4813, "\u2581wu": 4814, "\u2581returns": 4815, "\u2581contributions": 4816, "\u2581prisoners": 4817, "\u2581seriously": 4818, "\u2581statue": 4819, "\u2581milk": 4820, "61": 4821, "\u2581wars": 4822, "\u2581concerns": 4823, "\u2581dawn": 4824, "\u2581ratio": 4825, "\u258131,": 4826, "\u2581pol": 4827, "\u2581glance": 4828, "mc": 4829, "las": 4830, "\u2581atlanta": 4831, "\u2581signs": 4832, "\u2581austrian": 4833, "\u2581chu": 4834, "\u2581gu": 4835, "\u2581patient": 4836, "\u2581spending": 4837, "\u2581involving": 4838, "\u2581spiritual": 4839, "\u2581poems": 4840, "\u2581forehead": 4841, "\u2581aspects": 4842, "\u2581knee": 4843, "\u2581jobs": 4844, "\u2581policies": 4845, "\u2581cab": 4846, "\u2581aren": 4847, "\u25811934": 4848, "\u2581passage": 4849, "\u2581premiered": 4850, "\u2581instance": 4851, "\u2581supplies": 4852, "\u2581snapped": 4853, "\u2581drinking": 4854, "\u2581wound": 4855, "\u2581bare": 4856, "ians": 4857, "\u2581sigh": 4858, "lyn": 4859, "\u2581rocks": 4860, "\u2581sim": 4861, "\u2581abbey": 4862, "\u25811932": 4863, "\u2581slip": 4864, "\u2581app": 4865, "rat": 4866, "\u2581upset": 4867, "\u2581compilation": 4868, "rick": 4869, "\u2581appearing": 4870, "\u2581corporate": 4871, "\u2581marks": 4872, "\u2581technique": 4873, "\u2581surgery": 4874, "gle": 4875, "\u2581adapted": 4876, "later": 4877, "\u2581americans": 4878, "\u2581revival": 4879, "\u2581cro": 4880, "put": 4881, "four": 4882, "\u2581interesting": 4883, "\u2581shopping": 4884, "\u2581mas": 4885, "\u2581external": 4886, "\u2581thompson": 4887, "\u2581rap": 4888, "\u2581movements": 4889, "\u258139": 4890, "\u2581stages": 4891, "\u2581char": 4892, "night": 4893, "\u2581tests": 4894, "\u2581cleared": 4895, "\u2581outer": 4896, "\u2581mounted": 4897, "\u2581drum": 4898, "pr": 4899, "bat": 4900, "\u2581gor": 4901, "\u2581charity": 4902, "\u2581iraq": 4903, "\u2581faces": 4904, "\u2581appointment": 4905, "\u2581fantasy": 4906, "\u2581sending": 4907, "\u2581monument": 4908, "\u2581daughters": 4909, "\u2581legislature": 4910, "\u25811998,": 4911, "\u2581alternate": 4912, "\u2581denmark": 4913, "\u2581couch": 4914, "\u2581bones": 4915, "\u2581wayne": 4916, "\u2581artistic": 4917, "\u2581jacket": 4918, "tam": 4919, "\u25811912": 4920, "\u2581differences": 4921, "\u2581anywhere": 4922, "bur": 4923, "\u2581id": 4924, "az": 4925, "ington": 4926, "\u2581moves": 4927, "\u2581baker": 4928, "\u2581bre": 4929, "\u2581puerto": 4930, "\u2581grab": 4931, "final": 4932, "\u2581acted": 4933, "fish": 4934, "\u25811924": 4935, "best": 4936, "hal": 4937, "1994": 4938, "\u2581definitely": 4939, "usa": 4940, "gal": 4941, "\u2581happening": 4942, "even": 4943, "\u2581rad": 4944, "\u2581vienna": 4945, "\u2581orleans": 4946, "osa": 4947, "\u2581listening": 4948, "\u2581ros": 4949, "\u2581easier": 4950, "rak": 4951, "\u2581depression": 4952, "\u2581mechanical": 4953, "\u2581warren": 4954, "oma": 4955, "\u2581retained": 4956, "\u2581suffering": 4957, "\u2581satellite": 4958, "\u2581tamil": 4959, "\u2581elevation": 4960, "ava": 4961, "\u2581choir": 4962, "aire": 4963, "sar": 4964, "only": 4965, "cor": 4966, "\u2581edinburgh": 4967, "tia": 4968, "\u2581allied": 4969, "\u2581dying": 4970, "\u2581orthodox": 4971, "\u2581ze": 4972, "gra": 4973, "\u25811905": 4974, "\u2581ethan": 4975, "\u2581credited": 4976, "\u2581actors": 4977, "\u2581advice": 4978, "\u2581blade": 4979, "sy": 4980, "\u2581ukraine": 4981, "\u2581che": 4982, "\u2581portugal": 4983, "\u2581summit": 4984, "\u2581iowa": 4985, "\u2581cabin": 4986, "\u2581percussion": 4987, "\u2581approval": 4988, "\u2581rival": 4989, "1993": 4990, "\u2581robinson": 4991, "\u2581ranking": 4992, "\u25811922": 4993, "\u2581poll": 4994, "ob": 4995, "\u2581describe": 4996, "\u2581false": 4997, "\u2581strip": 4998, "\u2581blake": 4999, "round": 5000, "\u2581masters": 5001, "shaped": 5002, "\u2581debuted": 5003, "\u2581adaptation": 5004, "\u2581sole": 5005, "\u2581mud": 5006, "second": 5007, "rian": 5008, "had": 5009, "\u2581maintenance": 5010, "ware": 5011, "\u2581scholar": 5012, "\u25811931": 5013, "\u2581adults": 5014, "\u2581emerged": 5015, "\u258143": 5016, "\u2581refer": 5017, "\u2581goods": 5018, "\u2581honour": 5019, "\u2581strongly": 5020, "\u2581morris": 5021, "\u25811927": 5022, "\u2581alabama": 5023, "mb": 5024, "nal": 5025, "\u2581alfred": 5026, "\u2581gal": 5027, "\u2581shoes": 5028, "\u2581employment": 5029, "\u2581dna": 5030, "\u25811925": 5031, "\u2581wright": 5032, "election": 5033, "via": 5034, "\u2581eve": 5035, "wen": 5036, "\u2581industries": 5037, "\u2581hunting": 5038, "\u2581remix": 5039, "\u2581scent": 5040, "\u2581cheeks": 5041, "shire": 5042, "\u2581exposed": 5043, "\u2581battery": 5044, "\u25811907": 5045, "\u2581hungarian": 5046, "\u2581lucas": 5047, "\u2581seek": 5048, "\u2581suggests": 5049, "\u2581routes": 5050, "white": 5051, "ces": 5052, "\u2581brazilian": 5053, "\u2581increasingly": 5054, "\u2581cleveland": 5055, "\u2581scared": 5056, "\u2581math": 5057, "\u25811906": 5058, "\u2581cre": 5059, "hall": 5060, "\u2581leo": 5061, "\u2581shed": 5062, "\u2581jamie": 5063, "\u2581legislation": 5064, "\u2581welsh": 5065, "\u2581funny": 5066, "\u2581boundary": 5067, "\u2581starred": 5068, "bro": 5069, "\u2581stanley": 5070, "\u2581arch": 5071, "\u2581circumstances": 5072, "\u2581bru": 5073, "\u2581ownership": 5074, "\u2581forming": 5075, "\u2581pushing": 5076, "\u2581bel": 5077, "\u2581thumb": 5078, "\u2581abc": 5079, "\u2581merchant": 5080, "\u25811921": 5081, "\u2581traveled": 5082, "\u2581panic": 5083, "\u258146": 5084, "\u2581significantly": 5085, "\u2581strategic": 5086, "\u2581cur": 5087, "\u2581considerable": 5088, "cent": 5089, "\u2581components": 5090, "\u2581dogs": 5091, "zz": 5092, "scale": 5093, "\u2581vessel": 5094, "\u2581bible": 5095, "\u2581admiral": 5096, "\u2581waves": 5097, "\u2581wished": 5098, "\u2581barn": 5099, "\u2581monster": 5100, "\u2581malaysia": 5101, "\u2581processes": 5102, "ero": 5103, "\u25811909": 5104, "\u2581personality": 5105, "ple": 5106, "\u2581paint": 5107, "\u2581timber": 5108, "\u2581josh": 5109, "\u2581classified": 5110, "\u2581achievement": 5111, "\u2581jar": 5112, "1992": 5113, "\u2581holiday": 5114, "\u2581electoral": 5115, "\u2581logan": 5116, "\u2581rivers": 5117, "\u2581indonesia": 5118, "place": 5119, "\u2581gra": 5120, "\u2581feels": 5121, "\u2581ob": 5122, "\u2581sentence": 5123, "\u2581connecticut": 5124, "\u2581agents": 5125, "\u2581belonged": 5126, "ug": 5127, "game": 5128, "\u2581abuse": 5129, "mit": 5130, "\u2581couples": 5131, "\u2581manual": 5132, "ges": 5133, "\u2581seed": 5134, "\u258152": 5135, "\u2581regime": 5136, "\u2581vincent": 5137, "maybe": 5138, "\u2581totally": 5139, "\u2581intention": 5140, "\u2581oliver": 5141, "\u2581whereas": 5142, "\u2581illegal": 5143, "\u2581ta": 5144, "br": 5145, "mat": 5146, "\u25811926": 5147, "\u2581eighth": 5148, "\u2581proposal": 5149, "\u2581barry": 5150, "\u2581widow": 5151, "\u2581authors": 5152, "\u2581initiative": 5153, "\u2581considering": 5154, "\u25811904": 5155, "\u2581por": 5156, "5,000": 5157, "\u2581charts": 5158, "\u2581donald": 5159, "\u2581worship": 5160, "\u2581evans": 5161, "after": 5162, "\u2581roots": 5163, "\u2581leaf": 5164, "ade": 5165, "ati": 5166, "\u2581button": 5167, "\u2581pc": 5168, "\u2581murray": 5169, "\u2581stare": 5170, "mor": 5171, "\u2581gonna": 5172, "\u2581hol": 5173, "\u2581experimental": 5174, "rid": 5175, "\u2581silk": 5176, "\u2581worn": 5177, "\u2581popularity": 5178, "\u2581kra": 5179, "ei": 5180, "\u25811880": 5181, "\u2581harm": 5182, "act": 5183, "\u2581constitutional": 5184, "\u2581nicholas": 5185, "\u2581careful": 5186, "\u2581minimum": 5187, "\u2581flows": 5188, "mr": 5189, "\u2581mood": 5190, "\u2581kon": 5191, "\u2581gut": 5192, "aga": 5193, "\u2581restoration": 5194, "\u2581hurricane": 5195, "\u2581output": 5196, "\u2581parker": 5197, "\u2581blocks": 5198, "book": 5199, "\u2581tam": 5200, "\u2581attracted": 5201, "\u25811916": 5202, "\u2581destruction": 5203, "\u2581depth": 5204, "\u2581trading": 5205, "\u2581deeply": 5206, "ona": 5207, "\u2581marc": 5208, "1980": 5209, "\u2581dated": 5210, "\u2581cotton": 5211, "\u2581qualifying": 5212, "\u2581transmission": 5213, "av": 5214, "\u2581decline": 5215, "\u25811997,": 5216, "\u2581slave": 5217, "\u2581muttered": 5218, "\u2581sheriff": 5219, "\u2581emily": 5220, "ever": 5221, "\u2581corridor": 5222, "fm": 5223, "\u2581meets": 5224, "\u2581shrugged": 5225, "\u2581aim": 5226, "\u2581elder": 5227, "\u2581archbishop": 5228, "\u2581harder": 5229, "\u2581finals": 5230, "\u2581immediate": 5231, "\u2581novels": 5232, "\u2581pole": 5233, "\u2581transit": 5234, "2017": 5235, "\u258151": 5236, "\u2581defeating": 5237, "band": 5238, "\u2581demanded": 5239, "\u2581baltimore": 5240, "\u2581influential": 5241, "\u2581practices": 5242, "\u2581disney": 5243, "ima": 5244, "\u2581coverage": 5245, "\u2581seeking": 5246, "heim": 5247, "\u2581bon": 5248, "tti": 5249, "mas": 5250, "\u2581admit": 5251, "\u2581mate": 5252, "stra": 5253, "\u2581jurisdiction": 5254, "\u2581jerry": 5255, "rt": 5256, "aria": 5257, "\u2581stick": 5258, "tier": 5259, "\u2581celebrated": 5260, "\u2581symphony": 5261, "\u2581cream": 5262, "\u2581filed": 5263, "\u2581springs": 5264, "\u2581denied": 5265, "\u2581wil": 5266, "\u25811915": 5267, "\u2581colors": 5268, "\u2581forests": 5269, "\u2581adventure": 5270, "avi": 5271, "\u2581jury": 5272, "\u2581patrol": 5273, "\u2581muscle": 5274, "\u2581claire": 5275, "\u2581commanded": 5276, "\u2581lifetime": 5277, "\u2581tons": 5278, "\u2581customers": 5279, "\u2581criticized": 5280, "mate": 5281, "\u2581infrastructure": 5282, "\u2581guinea": 5283, "ral": 5284, "\u2581hated": 5285, "\u2581formally": 5286, "cio": 5287, "\u2581liverpool": 5288, "\u2581amazing": 5289, "dor": 5290, "\u2581mars": 5291, "\u2581mitchell": 5292, "\u2581loop": 5293, "tie": 5294, "\u2581comfort": 5295, "\u2581profile": 5296, "\u2581kara": 5297, "\u25811923": 5298, "\u2581surviving": 5299, "\u2581mai": 5300, "\u2581hp": 5301, "\u2581disaster": 5302, "\u2581danny": 5303, "\u2581nazi": 5304, "\u2581gradually": 5305, "\u2581indigenous": 5306, "\u2581knock": 5307, "\u2581twisted": 5308, "box": 5309, "\u2581accounts": 5310, "\u2581gross": 5311, "ique": 5312, "\u2581diamond": 5313, "\u2581hiding": 5314, "\u2581absence": 5315, "cl": 5316, "\u2581printed": 5317, "\u2581description": 5318, "\u2581breakfast": 5319, "\u2581eating": 5320, "\u2581resident": 5321, "\u2581vampires": 5322, "\u2581bobby": 5323, "\u2581mills": 5324, "\u2581fifa": 5325, "\u2581cop": 5326, "\u2581shadows": 5327, "\u2581frequency": 5328, "\u2581convinced": 5329, "\u258155": 5330, "shan": 5331, "\u2581rates": 5332, "\u2581voices": 5333, "\u2581angle": 5334, "olo": 5335, "\u2581passion": 5336, "\u2581sebastian": 5337, "\u2581romania": 5338, "\u2581intense": 5339, "\u2581exact": 5340, "\u2581$3": 5341, "hol": 5342, "\u2581lasted": 5343, "hold": 5344, "\u2581fool": 5345, "\u2581nova": 5346, "hop": 5347, "\u2581teach": 5348, "\u25811901": 5349, "\u2581architectural": 5350, "\u2581intersection": 5351, "boy": 5352, "\u2581tin": 5353, "\u2581ukrainian": 5354, "\u2581driven": 5355, "\u2581duo": 5356, "\u2581reporter": 5357, "bri": 5358, "hole": 5359, "\u2581lift": 5360, "1991": 5361, "\u2581keyboards": 5362, "\u2581mason": 5363, "\u2581pride": 5364, "\u2581ren": 5365, "bank": 5366, "\u2581stan": 5367, "\u2581injuries": 5368, "\u2581wouldnt": 5369, "ches": 5370, "\u2581pittsburgh": 5371, "\u2581modified": 5372, "\u2581cam": 5373, "\u2581mont": 5374, "\u2581stronger": 5375, "\u2581hon": 5376, "ore": 5377, "\u2581cutting": 5378, "\u2581engineers": 5379, "1989": 5380, "\u2581expensive": 5381, "\u2581losses": 5382, "\u2581flower": 5383, "\u2581stress": 5384, "\u2581layer": 5385, "uff": 5386, "\u2581egyptian": 5387, "\u2581remote": 5388, "\u2581ger": 5389, "\u2581expert": 5390, "\u2581exception": 5391, "\u2581completion": 5392, "\u2581monastery": 5393, "\u2581den": 5394, "\u2581noble": 5395, "\u2581pr": 5396, "\u2581hosts": 5397, "\u2581hungary": 5398, "\u2581pierre": 5399, "\u2581buck": 5400, "\u25811902": 5401, "\u2581acoustic": 5402, "\u2581scholarship": 5403, "\u2581assist": 5404, "\u25811996,": 5405, "\u2581markets": 5406, "\u2581select": 5407, "\u2581frequent": 5408, "\u2581escaped": 5409, "mic": 5410, "\u2581vessels": 5411, "\u2581killer": 5412, "\u2581brad": 5413, "\u2581aimed": 5414, "\u2581dollars": 5415, "\u2581hammer": 5416, "row": 5417, "qua": 5418, "\u2581luck": 5419, "\u2581imp": 5420, "\u2581premiere": 5421, "\u2581radical": 5422, "\u2581julia": 5423, "\u2581ignored": 5424, "\u2581nurse": 5425, "\u2581naked": 5426, "\u2581chemistry": 5427, "\u2581stra": 5428, "\u2581cord": 5429, "\u2581benjamin": 5430, "eg": 5431, "\u2581scientists": 5432, "char": 5433, "\u2581occasion": 5434, "\u2581territories": 5435, "gel": 5436, "\u2581kicked": 5437, "play": 5438, "\u2581honey": 5439, "\u2581margin": 5440, "\u2581declined": 5441, "\u2581representation": 5442, "\u2581hyper": 5443, "kel": 5444, "\u2581pearl": 5445, "ars": 5446, "gs": 5447, "ami": 5448, "gio": 5449, "feld": 5450, "\u2581filmed": 5451, "\u2581rabbi": 5452, "rc": 5453, "\u2581funeral": 5454, "\u2581weird": 5455, "\u2581bears": 5456, "\u2581moral": 5457, "\u2581scar": 5458, "\u2581habitat": 5459, "\u2581discussion": 5460, "\u2581creature": 5461, "\u2581devil": 5462, "\u2581effectively": 5463, "\u25811903": 5464, "\u2581definition": 5465, "\u2581tai": 5466, "\u2581broadway": 5467, "\u2581monte": 5468, "\u2581hop": 5469, "\u2581pie": 5470, "\u2581departure": 5471, "\u2581hallway": 5472, "\u2581tape": 5473, "god": 5474, "\u2581peru": 5475, "\u2581argument": 5476, "\u2581random": 5477, "lp": 5478, "\u2581signing": 5479, "\u2581tend": 5480, "\u2581ladies": 5481, "cer": 5482, "abad": 5483, "power": 5484, "black": 5485, "\u2581ci": 5486, "rate": 5487, "\u2581greg": 5488, "\u2581ivan": 5489, "\u2581innocent": 5490, "dell": 5491, "\u2581violin": 5492, "\u2581manor": 5493, "\u2581merely": 5494, "qu": 5495, "\u2581replacing": 5496, "\u2581arrangement": 5497, "vers": 5498, "\u2581fist": 5499, "\u2581craig": 5500, "\u2581drag": 5501, "\u2581bun": 5502, "\u2581equipped": 5503, "\u2581copper": 5504, "\u2581climbed": 5505, "\u2581flood": 5506, "\u25811913": 5507, "\u2581victim": 5508, "sti": 5509, "\u2581guardian": 5510, "\u2581processing": 5511, "\u2581bro": 5512, "\u2581experiences": 5513, "\u2581trick": 5514, "\u2581sculpture": 5515, "\u2581guests": 5516, "ali": 5517, "\u2581fortune": 5518, "\u2581divisions": 5519, "\u2581ages": 5520, "\u2581switch": 5521, "\u2581instrumental": 5522, "\u2581fled": 5523, "\u2581trio": 5524, "\u2581cited": 5525, "\u2581tap": 5526, "\u2581sh": 5527, "\u2581cock": 5528, "\u2581instrument": 5529, "\u2581penalty": 5530, "\u2581happens": 5531, "uf": 5532, "away": 5533, "\u2581keys": 5534, "ele": 5535, "\u2581birmingham": 5536, "\u2581bernard": 5537, "\u2581alcohol": 5538, "\u2581reaches": 5539, "\u2581networks": 5540, "\u2581purple": 5541, "\u2581hull": 5542, "\u2581collect": 5543, "\u2581hugh": 5544, "\u2581obtain": 5545, "\u2581progressive": 5546, "\u2581integrated": 5547, "\u2581portrait": 5548, "chen": 5549, "\u2581dozen": 5550, "hir": 5551, "\u2581barbara": 5552, "\u2581revolutionary": 5553, "horn": 5554, "dom": 5555, "minute": 5556, "\u2581executed": 5557, "\u2581whit": 5558, "\u2581hook": 5559, "\u25811870": 5560, "\u2581violent": 5561, "\u2581forgotten": 5562, "\u2581knocked": 5563, "ille": 5564, "\u2581trace": 5565, "bon": 5566, "log": 5567, "\u2581ive": 5568, "acre": 5569, "\u2581cargo": 5570, "south": 5571, "\u2581permission": 5572, "\u2581newspapers": 5573, "pping": 5574, "\u2581welcome": 5575, "pm": 5576, "\u2581commerce": 5577, "anti": 5578, "\u2581$": 5579, "will": 5580, "\u2581beam": 5581, "space": 5582, "org": 5583, "\u2581bri": 5584, "\u2581trap": 5585, "\u2581mystery": 5586, "\u2581swing": 5587, "inch": 5588, "\u2581defend": 5589, "\u2581distant": 5590, "\u2581beast": 5591, "\u2581electricity": 5592, "\u2581warriors": 5593, "sol": 5594, "\u2581jeans": 5595, "\u2581gates": 5596, "\u2581alien": 5597, "og": 5598, "\u2581volunteer": 5599, "\u2581telephone": 5600, "\u2581suggest": 5601, "\u2581nomination": 5602, "making": 5603, "\u2581gre": 5604, "\u2581contribution": 5605, "\u2581girlfriend": 5606, "\u2581tool": 5607, "hy": 5608, "ean": 5609, "\u2581seth": 5610, "\u2581clinical": 5611, "\u2581repair": 5612, "\u2581finland": 5613, "\u2581boats": 5614, "cle": 5615, "\u2581managing": 5616, "fin": 5617, "\u2581nest": 5618, "mun": 5619, "\u2581advertising": 5620, "\u2581controversial": 5621, "\u2581pants": 5622, "\u2581encouraged": 5623, "\u2581principles": 5624, "\u2581participation": 5625, "\u2581characteristics": 5626, "\u2581jin": 5627, "\u2581ideal": 5628, "\u2581greatly": 5629, "eur": 5630, "\u2581segment": 5631, "nell": 5632, "tum": 5633, "\u2581victorian": 5634, "mile": 5635, "\u2581exists": 5636, "\u2581meetings": 5637, "\u2581brooklyn": 5638, "lot": 5639, "\u2581revenue": 5640, "\u2581xi": 5641, "three": 5642, "\u2581mistake": 5643, "\u2581farmers": 5644, "\u2581apply": 5645, "\u2581longest": 5646, "\u2581siege": 5647, "od": 5648, "\u2581competing": 5649, "\u2581spider": 5650, "\u2581thailand": 5651, "nz": 5652, "\u2581cried": 5653, "\u2581gentle": 5654, "fully": 5655, "\u2581operational": 5656, "\u2581bold": 5657, "\u2581elite": 5658, "\u2581gran": 5659, "fall": 5660, "ui": 5661, "\u2581catherine": 5662, "?'": 5663, "\u2581rarely": 5664, "\u2581steady": 5665, "\u2581outdoor": 5666, "\u2581gill": 5667, "ock": 5668, "\u2581possession": 5669, "\u2581controversy": 5670, "\u2581justin": 5671, "ado": 5672, "\u2581athletics": 5673, "\u2581extent": 5674, "\u2581affair": 5675, "\u2581bet": 5676, "\u2581confusion": 5677, "\u2581pitch": 5678, "\u2581involvement": 5679, "\u2581evolution": 5680, "\u2581diameter": 5681, "\u2581youngest": 5682, "\u2581friendship": 5683, "\u2581lloyd": 5684, "yne": 5685, "\u2581concentration": 5686, "\u258147": 5687, "\u2581annually": 5688, "\u2581bench": 5689, "\u2581shelter": 5690, "\u2581forum": 5691, "\u2581suspended": 5692, "\u2581uefa": 5693, "\u2581corn": 5694, "\u2581grove": 5695, "\u2581skull": 5696, "\u2581shouted": 5697, "\u2581raising": 5698, "\u2581opportunities": 5699, "\u2581figured": 5700, "\u25811995,": 5701, "\u2581hispanic": 5702, "nin": 5703, "\u2581venue": 5704, "\u2581alpha": 5705, "\u2581versus": 5706, "\u2581competitive": 5707, "\u2581bonus": 5708, "oon": 5709, "\u2581thunder": 5710, "\u2581raj": 5711, "\u2581wondering": 5712, "\u2581practical": 5713, "\u2581shouldn": 5714, "\u2581nevertheless": 5715, "\u2581ruling": 5716, "\u2581sample": 5717, "\u2581asleep": 5718, "nk": 5719, "\u2581tribes": 5720, "\u2581collections": 5721, "\u2581witch": 5722, "\u2581prepare": 5723, "\u2581terry": 5724, "\u2581staying": 5725, "\u2581peaked": 5726, "pl": 5727, "\u2581shu": 5728, "uda": 5729, "\u2581badly": 5730, "\u2581dennis": 5731, "bia": 5732, "\u2581comfortable": 5733, "\u2581jail": 5734, "eta": 5735, "\u2581latest": 5736, "\u2581experiment": 5737, "\u2581rico": 5738, "list": 5739, "\u2581technologies": 5740, "rio": 5741, "\u2581canon": 5742, "\u2581enemies": 5743, "\u2581portland": 5744, "\u2581monday": 5745, "\u2581dealing": 5746, "\u2581dual": 5747, "\u2581credits": 5748, "\u2581reed": 5749, "\u2581pas": 5750, "\u2581intellectual": 5751, "\u2581treat": 5752, "aba": 5753, "\u2581zane": 5754, "\u2581sergeant": 5755, "\u2581ensemble": 5756, "ions": 5757, "\u2581larry": 5758, "\u2581perfectly": 5759, "\u2581pursue": 5760, "\u2581steven": 5761, "\u2581hindu": 5762, "\u2581sessions": 5763, "\u2581explanation": 5764, "\u2581belief": 5765, "\u2581ky": 5766, "\u2581marcus": 5767, "ily": 5768, "\u2581execution": 5769, "eu": 5770, "vor": 5771, "shirt": 5772, "\u2581recommended": 5773, "\u2581costa": 5774, "\u2581kai": 5775, "\u2581ralph": 5776, "\u2581thrust": 5777, "rn": 5778, "pc": 5779, "\u2581percentage": 5780, "made": 5781, "cat": 5782, "\u2581drivers": 5783, "\u2581animated": 5784, "\u2581agencies": 5785, "\u2581kil": 5786, "\u2581suppose": 5787, "city": 5788, "\u2581harrison": 5789, "\u2581civilian": 5790, "\u2581scream": 5791, "\u2581searching": 5792, "\u2581lodge": 5793, "\u2581partly": 5794, "\u2581occasions": 5795, "\u2581hence": 5796, "rac": 5797, "\u2581milan": 5798, "\u2581sho": 5799, "\u2581benefits": 5800, "zel": 5801, "\u2581cent": 5802, "\u2581terrible": 5803, "\u2581bite": 5804, "\u2581blast": 5805, "\u25811898": 5806, "\u2581eagle": 5807, "\u2581identify": 5808, "\u2581wy": 5809, "look": 5810, "\u2581nba": 5811, "\u2581carrier": 5812, "\u2581muscles": 5813, "\u2581hub": 5814, "have": 5815, "\u2581custom": 5816, "\u2581lowered": 5817, "\u2581statistics": 5818, "\u2581missions": 5819, "\u2581richmond": 5820, "\u2581eggs": 5821, "\u2581gathering": 5822, "\u2581graduating": 5823, "chinese": 5824, "\u2581tiger": 5825, "\u2581mixing": 5826, "\u2581relation": 5827, "arm": 5828, "\u25811994,": 5829, "\u2581hips": 5830, "gin": 5831, "\u2581essential": 5832, "\u2581relationships": 5833, "\u2581legion": 5834, "ske": 5835, "\u2581producers": 5836, "\u2581laura": 5837, "sure": 5838, "\u2581rounds": 5839, "try": 5840, "\u2581utah": 5841, "\u2581stones": 5842, "\u2581similarly": 5843, "\u2581recognize": 5844, "xi": 5845, "kha": 5846, "vol": 5847, "\u2581merit": 5848, "\u2581dirt": 5849, "\u2581taiwan": 5850, "tain": 5851, "\u2581doorway": 5852, "\u2581debt": 5853, "\u2581ok": 5854, "\u2581informed": 5855, "\u2581warrior": 5856, "\u2581abroad": 5857, "mis": 5858, "\u2581continental": 5859, "\u2581acquisition": 5860, "\u2581placing": 5861, "\u2581islam": 5862, "\u2581recovered": 5863, "chy": 5864, "\u2581claiming": 5865, "tle": 5866, "\u2581suspected": 5867, "\u2581competitions": 5868, "\u2581biological": 5869, "\u2581neil": 5870, "\u2581breast": 5871, "\u2581donated": 5872, "\u2581tale": 5873, "\u2581remainder": 5874, "\u2581warner": 5875, "\u2581cooperation": 5876, "\u2581mir": 5877, "\u2581borders": 5878, "\u2581deliver": 5879, "\u2581voting": 5880, "\u2581retail": 5881, "\u2581forth": 5882, "\u2581behalf": 5883, "\u2581nan": 5884, "\u2581researchers": 5885, "\u2581doesnt": 5886, "\u2581limits": 5887, "profit": 5888, "\u2581participants": 5889, "press": 5890, "\u2581deeper": 5891, "\u2581sank": 5892, "bie": 5893, "\u2581boots": 5894, "\u2581reduction": 5895, "\u258154": 5896, "\u2581principle": 5897, "\u2581tear": 5898, "\u2581ian": 5899, "\u2581root": 5900, "\u2581ferry": 5901, "\u2581rushed": 5902, "vy": 5903, "thank": 5904, "hn": 5905, "\u2581indoor": 5906, "ious": 5907, "\u2581nobody": 5908, "met": 5909, "#": 5910, "\u2581emotions": 5911, "\u2581component": 5912, "\u2581cass": 5913, "\u2581ber": 5914, "\u2581buffalo": 5915, "\u2581publisher": 5916, "\u2581arkansas": 5917, "\u2581portrayed": 5918, "\u2581bangladesh": 5919, "\u2581explosion": 5920, "sville": 5921, "\u2581drunk": 5922, "\u2581perry": 5923, "table": 5924, "\u25811,000": 5925, "\u2581jerusalem": 5926, "\u258163": 5927, "live": 5928, "fire": 5929, "1988": 5930, "\u2581citizen": 5931, "rr": 5932, "\u2581partially": 5933, "\u2581wonderful": 5934, "\u2581exercise": 5935, "\u2581collins": 5936, "\u2581dim": 5937, "\u2581sacred": 5938, "\u2581leaning": 5939, "\u2581valuable": 5940, "\u2581ab": 5941, "lov": 5942, "\u2581hardly": 5943, "\u2581proud": 5944, "\u2581shares": 5945, "ration": 5946, "\u2581chile": 5947, "\u2581tension": 5948, "cas": 5949, "ans": 5950, "\u2581pregnant": 5951, "\u2581bas": 5952, "\u2581grim": 5953, "eau": 5954, "\u2581supporters": 5955, "\u2581serial": 5956, "\u2581mega": 5957, "ants": 5958, "\u2581gmina": 5959, "\u2581businessman": 5960, "\u2581drummer": 5961, "mur": 5962, "\u2581bou": 5963, "\u2581turner": 5964, "\u2581alleged": 5965, "\u2581orbit": 5966, "\u2581cardinal": 5967, "\u2581concerts": 5968, "\u2581tourism": 5969, "mie": 5970, "\u2581epi": 5971, "pat": 5972, "\u2581commented": 5973, "\u2581descent": 5974, "\u2581genre": 5975, "nus": 5976, "\u2581excellent": 5977, "\u2581withdrew": 5978, "\u2581belonging": 5979, "\u2581photographer": 5980, "\u2581preferred": 5981, "\u2581apparent": 5982, "\u2581mask": 5983, "\u2581bike": 5984, "ori": 5985, "\u2581keith": 5986, "cott": 5987, "\u2581bread": 5988, "bad": 5989, "\u2581discuss": 5990, "sion": 5991, "\u2581nbc": 5992, "\u2581pete": 5993, "gia": 5994, "oni": 5995, "ema": 5996, "\u2581mansion": 5997, "\u2581venture": 5998, "\u2581delhi": 5999, "500": 6000, "any": 6001, "\u2581enterprise": 6002, "\u2581decisions": 6003, "\u2581ninth": 6004, "\u2581glasgow": 6005, "\u2581sweat": 6006, "\u2581fuck": 6007, "\u2581assessment": 6008, "\u2581tommy": 6009, "\u2581delivery": 6010, "hard": 6011, "\u2581wal": 6012, "lip": 6013, "\u2581phoenix": 6014, "tom": 6015, "\u2581colin": 6016, "\u2581kirk": 6017, "\u2581database": 6018, "1987": 6019, "\u2581chorus": 6020, "iff": 6021, "\u2581operator": 6022, "\u2581lion": 6023, "english": 6024, "\u2581widespread": 6025, "\u2581elevator": 6026, "\u2581thrown": 6027, "\u2581fi": 6028, "\u2581120": 6029, "\u2581package": 6030, "ash": 6031, "\u2581terror": 6032, "\u2581throwing": 6033, "\u2581fr": 6034, "\u2581machines": 6035, "\u2581detailed": 6036, "cre": 6037, "\u2581belgian": 6038, "\u25811899": 6039, "\u2581elsewhere": 6040, "\u2581reminded": 6041, "\u2581rec": 6042, "ato": 6043, "\u2581saints": 6044, "\u2581thereafter": 6045, "\u2581sink": 6046, "brook": 6047, "ila": 6048, "ill": 6049, "\u2581comparison": 6050, "wall": 6051, "ters": 6052, "\u2581stern": 6053, "\u2581posted": 6054, "ora": 6055, "\u2581beth": 6056, "pop": 6057, "\u2581crack": 6058, "\u2581grain": 6059, "\u2581photographs": 6060, "\u2581opponent": 6061, "\u2581bars": 6062, "\u2581syn": 6063, "\u2581instantly": 6064, "\u2581sul": 6065, "\u2581dug": 6066, "\u2581fee": 6067, "\u2581fed": 6068, "ole": 6069, "\u2581proof": 6070, "ological": 6071, "\u2581judges": 6072, "\u2581expand": 6073, "\u2581adrian": 6074, "hood": 6075, "\u2581struggled": 6076, "hen": 6077, "\u2581discussed": 6078, "\u2581fictional": 6079, "\u2581settle": 6080, "\u2581tribute": 6081, "\u2581amy": 6082, "\u2581grinned": 6083, "\u2581viewed": 6084, "\u2581folded": 6085, "\u2581mari": 6086, "\u2581yorkshire": 6087, "winning": 6088, "\u2581compound": 6089, "\u2581emotional": 6090, "\u2581wang": 6091, "formerly": 6092, "bas": 6093, "iva": 6094, "ets": 6095, "\u2581pounds": 6096, "\u2581sultan": 6097, "\u2581fix": 6098, "\u2581conclusion": 6099, "ste": 6100, "sam": 6101, "ras": 6102, "\u2581murdered": 6103, "\u2581ordinary": 6104, "ase": 6105, "sta": 6106, "\u2581bloody": 6107, "\u2581overseas": 6108, "lc": 6109, "\u2581detail": 6110, "ovic": 6111, "\u2581medals": 6112, "nick": 6113, "stan": 6114, "\u2581displayed": 6115, "\u2581clerk": 6116, "oka": 6117, "\u2581lou": 6118, "\u2581defending": 6119, "\u2581dock": 6120, "\u2581dirty": 6121, "\u2581chan": 6122, "\u2581implementation": 6123, "\u2581hood": 6124, "\u2581sheet": 6125, "\u2581sharing": 6126, "\u2581volumes": 6127, "\u2581whisper": 6128, "\u2581baptist": 6129, "1986": 6130, "\u2581dig": 6131, "\u2581protestant": 6132, "\u2581ticket": 6133, "esh": 6134, "\u2581forcing": 6135, "\u2581wildlife": 6136, "eri": 6137, "\u2581cbs": 6138, "\u2581liberty": 6139, "\u2581arrive": 6140, "\u2581wealth": 6141, "tive": 6142, "\u2581touring": 6143, "\u2581wrist": 6144, "\u2581tech": 6145, "cast": 6146, "\u2581rocky": 6147, "\u2581skill": 6148, "\u2581blame": 6149, "\u25811000": 6150, "slav": 6151, "1970": 6152, "\u2581dramatic": 6153, "\u2581vancouver": 6154, "onia": 6155, "wn": 6156, "bor": 6157, "\u2581scout": 6158, "\u2581traditionally": 6159, "\u2581suite": 6160, "\u2581tough": 6161, "\u2581pond": 6162, "\u2581faint": 6163, "\u2581ceased": 6164, "\u2581witness": 6165, "\u2581indians": 6166, "\u25811860": 6167, "\u2581chess": 6168, "nas": 6169, "\u25811993,": 6170, "\u258156": 6171, "\u2581fabric": 6172, "\u2581cer": 6173, "ace": 6174, "nce": 6175, "\u2581todd": 6176, "fr": 6177, "\u2581lan": 6178, "\u2581editions": 6179, "\u2581inspiration": 6180, "\u2581pulse": 6181, "\u2581psychology": 6182, "\u25811895": 6183, "\u2581erected": 6184, "\u2581substantial": 6185, "\u2581cr": 6186, "\u2581stuart": 6187, "\u2581aaron": 6188, "\u2581parade": 6189, "\u2581preserved": 6190, "\u2581muhammad": 6191, "\u2581bengal": 6192, "\u2581ch": 6193, "chief": 6194, "\u2581hudson": 6195, "\u2581bend": 6196, "\u2581bigger": 6197, "\u2581boyfriend": 6198, "vic": 6199, "\u2581unfortunately": 6200, "pass": 6201, "\u2581voters": 6202, "related": 6203, "\u2581ballet": 6204, "\u2581tur": 6205, "\u2581cattle": 6206, "\u258153": 6207, "\u25811897": 6208, "\u2581kn": 6209, "\u2581crying": 6210, "\u2581genetic": 6211, "\u2581spencer": 6212, "\u25811896": 6213, "\u2581lions": 6214, "\u2581writes": 6215, "bh": 6216, "\u2581pioneer": 6217, "\u2581convince": 6218, "\u2581belong": 6219, "zan": 6220, "\u2581harbour": 6221, "\u2581nathan": 6222, "\u2581assets": 6223, "\u2581preserve": 6224, "\u2581bore": 6225, "uz": 6226, "\u2581streak": 6227, "\u2581romanian": 6228, "\u2581regulations": 6229, "hur": 6230, "\u2581virus": 6231, "main": 6232, "\u25811992,": 6233, "\u2581prayer": 6234, "\u2581kam": 6235, "\u2581animation": 6236, "\u2581attending": 6237, "\u2581emphasis": 6238, "ret": 6239, "pet": 6240, "\u2581cafe": 6241, "\u2581garage": 6242, "uli": 6243, "\u2581companion": 6244, "\u2581affect": 6245, "\u2581historically": 6246, "lau": 6247, "tian": 6248, "\u2581hampshire": 6249, "\u2581fluid": 6250, "\u2581latino": 6251, "ld": 6252, "\u2581lakes": 6253, "\u2581sel": 6254, "\u2581allies": 6255, "\u2581bug": 6256, "\u2581cage": 6257, "link": 6258, "\u2581certificate": 6259, "\u2581bristol": 6260, "ched": 6261, "\u2581radar": 6262, "\u2581conversion": 6263, "\u2581receiver": 6264, "\u2581anchor": 6265, "\u2581fri": 6266, "\u2581lisa": 6267, "eth": 6268, "\u2581dur": 6269, "\u2581attributed": 6270, "\u2581links": 6271, "\u2581murphy": 6272, "\u2581tube": 6273, "\u2581lily": 6274, "\u2581screamed": 6275, "\u2581earn": 6276, "\u2581alaska": 6277, "\u2581devon": 6278, "\u2581hum": 6279, "inter": 6280, "ao": 6281, "\u2581patterns": 6282, "\u2581rage": 6283, "\u2581grandmother": 6284, "\u2581nat": 6285, "ening": 6286, "bl": 6287, "ien": 6288, "\u2581span": 6289, "\u2581afghanistan": 6290, "\u2581residing": 6291, "1985": 6292, "\u2581lanka": 6293, "\u2581lin": 6294, "gram": 6295, "\u2581crimes": 6296, "\u2581discover": 6297, "aya": 6298, "\u2581revenge": 6299, "jar": 6300, "\u2581centers": 6301, "cing": 6302, "anna": 6303, "\u2581ol": 6304, "\u2581load": 6305, "central": 6306, "\u2581madrid": 6307, "\u2581zu": 6308, "\u2581ranks": 6309, "\u2581rip": 6310, "\u2581viewers": 6311, "\u2581def": 6312, "\u2581ruth": 6313, "\u2581attempting": 6314, "\u2581voivodeship": 6315, "\u2581patent": 6316, "\u2581il": 6317, "\u2581traded": 6318, "ened": 6319, "\u2581clinton": 6320, "\u2581sixteen": 6321, "\u2581instant": 6322, "\u2581identical": 6323, "cd": 6324, "length": 6325, "ox": 6326, "\u2581murmured": 6327, "\u2581channels": 6328, "\u2581pub": 6329, "\u2581mah": 6330, "\u2581isolated": 6331, "\u2581sung": 6332, "sburg": 6333, "\u2581backed": 6334, "uc": 6335, "num": 6336, "\u2581maine": 6337, "\u2581porch": 6338, "\u2581hawaii": 6339, "\u2581lucy": 6340, "\u2581atmosphere": 6341, "\u2581favour": 6342, "\u2581sponsored": 6343, "\u2581democracy": 6344, "ere": 6345, "\u2581kit": 6346, "\u2581voiced": 6347, "\u2581kol": 6348, "\u2581lean": 6349, "\u2581wider": 6350, "para": 6351, "\u25811:": 6352, "sex": 6353, "\u2581interrupted": 6354, "\u2581breathe": 6355, "ichi": 6356, "\u2581continuous": 6357, "\u2581snake": 6358, "ites": 6359, "\u2581chicken": 6360, "\u2581boundaries": 6361, "rl": 6362, "\u2581stretch": 6363, "\u2581presentation": 6364, "\u2581demolished": 6365, "say": 6366, "\u2581input": 6367, "\u2581options": 6368, "\u2581prefer": 6369, "\u2581finn": 6370, "\u2581globe": 6371, "\u2581updated": 6372, "\u2581midnight": 6373, "wo": 6374, "died": 6375, "\u2581harold": 6376, "\u2581fundamental": 6377, "\u2581ease": 6378, "\u2581connect": 6379, "\u2581tenure": 6380, "\u2581texts": 6381, "\u2581hint": 6382, "\u25811991,": 6383, "tr": 6384, "\u2581secured": 6385, "\u2581rebellion": 6386, "\u2581egg": 6387, "\u2581thirteen": 6388, "\u2581geo": 6389, "written": 6390, "int": 6391, "\u2581licensed": 6392, "\u2581desperate": 6393, "\u2581impression": 6394, "\u2581delta": 6395, "uch": 6396, "\u25811893": 6397, "\u2581engagement": 6398, "\u2581kin": 6399, "\u2581stretched": 6400, "uma": 6401, "\u2581dialogue": 6402, "\u2581boom": 6403, "ridge": 6404, "\u2581fitted": 6405, "\u2581manhattan": 6406, "big": 6407, "\u2581tro": 6408, "\u2581romance": 6409, "\u2581joan": 6410, "\u2581vital": 6411, "thy": 6412, "face": 6413, "\u2581mit": 6414, "\u2581scientist": 6415, "president": 6416, "\u2581everywhere": 6417, "ture": 6418, "\u2581sta": 6419, "\u2581cart": 6420, "\u2581maha": 6421, "\u2581categories": 6422, "wal": 6423, "\u2581hydro": 6424, "\u2581nod": 6425, "\u2581arriving": 6426, "\u2581trinity": 6427, "moto": 6428, "\u2581butler": 6429, "ged": 6430, "\u2581finnish": 6431, "\u2581vegas": 6432, "\u2581waved": 6433, "zhou": 6434, "\u2581electro": 6435, "\u2581trunk": 6436, "\u2581tender": 6437, "\u2581furthermore": 6438, "\u2581$2": 6439, "\u2581connecting": 6440, "gli": 6441, "\u2581slight": 6442, "\u2581styles": 6443, "month": 6444, "\u2581suitable": 6445, "\u2581dismissed": 6446, "\u2581soap": 6447, "py": 6448, "\u2581logo": 6449, "\u2581parks": 6450, "\u2581hms": 6451, "\u2581reservoir": 6452, "\u2581tang": 6453, "rey": 6454, "\u2581cameron": 6455, "\u2581democrat": 6456, "\u2581awareness": 6457, "\u2581carol": 6458, "\u2581ranch": 6459, "\u2581monthly": 6460, "\u2581consumer": 6461, "\u2581herbert": 6462, "\u2581blank": 6463, "\u2581slide": 6464, "\u2581rebuilt": 6465, "maker": 6466, "\u2581argue": 6467, "\u2581punishment": 6468, "fort": 6469, "ido": 6470, "\u2581autumn": 6471, "\u2581nights": 6472, "\u2581derby": 6473, "\u2581trials": 6474, "\u2581indicates": 6475, "\u2581slaves": 6476, "\u2581concerning": 6477, "rina": 6478, "\u2581comp": 6479, "\u2581minority": 6480, "\u2581settlers": 6481, "has": 6482, "www": 6483, "\u2581comment": 6484, "\u2581sheep": 6485, "page": 6486, "\u2581relegated": 6487, "\u2581files": 6488, "\u2581quit": 6489, "\u2581alarm": 6490, "\u2581isaac": 6491, "\u2581mun": 6492, "lands": 6493, "\u2581swan": 6494, "\u2581tales": 6495, "uh": 6496, "\u2581marble": 6497, "ense": 6498, "\u2581contested": 6499, "\u25811889": 6500, "wald": 6501, "\u2581mediterranean": 6502, "\u2581narrative": 6503, "\u2581reply": 6504, "\u2581checked": 6505, "\u2581therapy": 6506, "\u25811892": 6507, "\u2581craft": 6508, "\u2581bog": 6509, "\u2581lover": 6510, "\u2581wire": 6511, "\u2581hug": 6512, "\u2581chuck": 6513, "western": 6514, "\u25811864": 6515, "oid": 6516, "\u2581inspector": 6517, "\u25811885": 6518, "\u2581distinction": 6519, "\u2581artwork": 6520, "uro": 6521, "\u2581neuro": 6522, "\u2581tab": 6523, "tech": 6524, "mina": 6525, "rod": 6526, "\u2581laughter": 6527, "\u2581shocked": 6528, "\u2581collapse": 6529, "\u2581traveling": 6530, "\u2581perspective": 6531, "vel": 6532, "\u2581conventional": 6533, "\u2581mechanism": 6534, "\u2581gospel": 6535, "\u2581seal": 6536, "\u2581gregory": 6537, "rm": 6538, "\u2581fellowship": 6539, "\u2581gau": 6540, "\u2581eldest": 6541, "\u2581nhl": 6542, "\u2581lowest": 6543, "\u258157": 6544, "\u2581fence": 6545, "\u2581merger": 6546, "nah": 6547, "\u2581confidence": 6548, "\u2581marvel": 6549, "\u2581recovery": 6550, "\u2581pile": 6551, "\u2581gilbert": 6552, "\u2581collective": 6553, "late": 6554, "\u2581earning": 6555, "\u2581tightly": 6556, "\u2581nearest": 6557, "\u2581substitute": 6558, "\u2581earthquake": 6559, "sized": 6560, "\u2581swallowed": 6561, "\u2581dominated": 6562, "\u2581regret": 6563, "\u2581wool": 6564, "\u258162": 6565, "\u2581prisoner": 6566, "ute": 6567, "\u2581pla": 6568, "\u2581involves": 6569, "\u2581confederate": 6570, "300": 6571, "chin": 6572, "\u2581interface": 6573, "\u2581wealthy": 6574, "team": 6575, "\u2581giants": 6576, "\u2581resource": 6577, "\u2581commitment": 6578, "\u2581beijing": 6579, "\u2581sao": 6580, "\u2581cruise": 6581, "\u2581bang": 6582, "\u2581rangers": 6583, "\u2581kyle": 6584, "\u2581duncan": 6585, "\u2581suffer": 6586, "\u2581exposure": 6587, "\u2581nar": 6588, "\u2581penn": 6589, "\u2581provinces": 6590, "\u2581endemic": 6591, "\u2581volunteers": 6592, "\u2581vo": 6593, "\u2581frowned": 6594, "piece": 6595, "\u2581framework": 6596, "\u25811888": 6597, "\u2581rocket": 6598, "\u2581virtual": 6599, "\u2581knights": 6600, "ments": 6601, "\u2581requested": 6602, "agh": 6603, "\u2581stops": 6604, "\u2581paying": 6605, "awa": 6606, "\u2581illustrated": 6607, ":10": 6608, "\u2581terminus": 6609, "\u2581videos": 6610, "\u2581runners": 6611, "\u2581ultimate": 6612, "\u2581submarine": 6613, "\u2581angels": 6614, "\u2581chat": 6615, "\u2581surrender": 6616, "\u2581interchange": 6617, "\u2581owen": 6618, "\u2581insisted": 6619, "march": 6620, "\u2581ste": 6621, "adi": 6622, "\u2581rai": 6623, "\u2581hadnt": 6624, "\u2581conductor": 6625, "\u2581furniture": 6626, "\u25811891": 6627, "\u2581cloth": 6628, "\u2581reportedly": 6629, "\u2581caribbean": 6630, "\u2581dispute": 6631, "nai": 6632, "\u2581mul": 6633, "\u2581whenever": 6634, "cul": 6635, "\u25811865": 6636, "\u25811894": 6637, "\u2581armenian": 6638, "rik": 6639, "\u2581realm": 6640, "ose": 6641, "\u2581derek": 6642, "\u2581bitch": 6643, "\u2581rubbed": 6644, "vent": 6645, "\u2581activist": 6646, "\u2581fairly": 6647, "card": 6648, "sz": 6649, "\u2581brook": 6650, "ome": 6651, "\u2581touching": 6652, "\u2581sentenced": 6653, "\u2581prefecture": 6654, "\u2581zoo": 6655, "1984": 6656, "\u2581toured": 6657, "\u2581excuse": 6658, "\u2581suburb": 6659, "fel": 6660, "\u2581dec": 6661, "\u2581kilometers": 6662, "\u2581arabic": 6663, "\u2581$4": 6664, "\u2581serbia": 6665, "1983": 6666, "\u2581switched": 6667, "tc": 6668, "\u2581celebration": 6669, "\u2581reporting": 6670, "\u2581recalled": 6671, "\u2581sprint": 6672, "\u2581pleasant": 6673, "\u2581decides": 6674, "\u2581preparation": 6675, "\u2581warned": 6676, "\u2581gla": 6677, "\u2581spun": 6678, "\u2581noah": 6679, "\u2581locally": 6680, "\u2581rid": 6681, "nen": 6682, "\u2581characterized": 6683, "ologist": 6684, "\u2581householder": 6685, "pel": 6686, "\u2581hitting": 6687, "\u2581swear": 6688, "\u2581cannon": 6689, "\u2581advisory": 6690, "\u2581emotion": 6691, "\u2581manuel": 6692, "\u258110,000": 6693, "\u2581madison": 6694, "\u2581ec": 6695, "lle": 6696, "\u25811861": 6697, "\u2581deployed": 6698, "\u2581missile": 6699, "\u2581produces": 6700, "\u2581swept": 6701, "gri": 6702, "\u2581flames": 6703, "\u2581rag": 6704, "\u2581innings": 6705, "borg": 6706, "\u2581tanks": 6707, "speed": 6708, "\u2581answers": 6709, "\u2581adventures": 6710, "cr": 6711, "\u2581pitcher": 6712, "\u2581publicly": 6713, "\u2581wise": 6714, "\u2581automatic": 6715, "\u2581canton": 6716, "\u2581kissing": 6717, "\u2581fighters": 6718, "\u2581treasure": 6719, "pal": 6720, "\u2581advisor": 6721, "\u2581sufficient": 6722, "\u2581retreat": 6723, "\u2581tourist": 6724, "glo": 6725, "\u2581funded": 6726, "leg": 6727, "\u2581cy": 6728, "\u2581clinic": 6729, "\u2581rang": 6730, "\u2581regard": 6731, "matic": 6732, "\u2581creatures": 6733, "\u2581spike": 6734, "\u2581lightning": 6735, "\u2581pm": 6736, "\u2581sailed": 6737, "\u2581log": 6738, "1982": 6739, "\u2581fourteen": 6740, "\u2581oscar": 6741, "six": 6742, "\u2581spine": 6743, "please": 6744, "\u2581linear": 6745, "\u2581stolen": 6746, "\u2581supports": 6747, "\u2581ongoing": 6748, "\u2581vale": 6749, "\u2581anglo": 6750, "\u2581affiliated": 6751, "aff": 6752, "\u2581exclusive": 6753, "\u2581cliff": 6754, "\u2581winds": 6755, "\u2581generated": 6756, "\u2581tel": 6757, "\u25811850": 6758, "\u2581lp": 6759, "\u2581connections": 6760, "\u2581illness": 6761, "\u2581statistical": 6762, "une": 6763, "\u2581kir": 6764, "\u2581qualify": 6765, "kal": 6766, "ert": 6767, "\u2581tune": 6768, "\u2581punk": 6769, "\u2581organised": 6770, "\u2581pur": 6771, "\u2581affiliate": 6772, "kins": 6773, "\u2581250": 6774, "hat": 6775, "\u2581solutions": 6776, "\u2581flu": 6777, "hor": 6778, "\u2581shaw": 6779, "\u2581dropping": 6780, "\u2581intervention": 6781, "\u2581volleyball": 6782, "\u2581ibn": 6783, "\u258161": 6784, "udi": 6785, "\u2581nephew": 6786, "\u2581eighteen": 6787, "stadt": 6788, "\u25811862": 6789, "nagar": 6790, "xa": 6791, "\u2581lamp": 6792, "\u2581abu": 6793, "\u25811989,": 6794, "\u2581rosa": 6795, "\u2581leonard": 6796, "\u2581tent": 6797, "els": 6798, "\u2581garrison": 6799, "oriented": 6800, "\u2581boot": 6801, "\u2581vocalist": 6802, "\u2581cra": 6803, "\u2581das": 6804, "\u2581eva": 6805, "\u2581pupils": 6806, "\u2581implemented": 6807, "\u2581beetle": 6808, "\u2581artificial": 6809, "\u2581pistol": 6810, "\u2581jefferson": 6811, "\u2581bullet": 6812, "bot": 6813, "\u2581establishing": 6814, "\u2581bud": 6815, "\u2581serbian": 6816, "mad": 6817, "\u2581rope": 6818, "\u2581client": 6819, "\u2581reveal": 6820, "\u2581spotted": 6821, "\u2581relocated": 6822, "\u2581liz": 6823, "cs": 6824, "\u2581lance": 6825, "organ": 6826, "ison": 6827, "lag": 6828, "\u25811863": 6829, "\u2581repeat": 6830, "\u2581romanized": 6831, "\u2581pointing": 6832, "\u2581sporting": 6833, "\u2581holland": 6834, "\u2581raja": 6835, "here": 6836, "\u2581shoved": 6837, "\u2581oxygen": 6838, "\u2581glow": 6839, "mini": 6840, "\u2581jesse": 6841, "\u2581dia": 6842, "\u2581platforms": 6843, "\u2581spur": 6844, "\u2581phrase": 6845, "\u2581beck": 6846, "\u2581raid": 6847, "\u2581militia": 6848, "stead": 6849, "\u2581immigration": 6850, "\u2581adelaide": 6851, "green": 6852, "\u2581diet": 6853, "\u2581slammed": 6854, "\u2581celebrate": 6855, "\u2581devoted": 6856, "woman": 6857, "sea": 6858, "\u2581interstate": 6859, "\u2581graduation": 6860, "\u2581demonstrated": 6861, "\u2581bastard": 6862, "owned": 6863, "lit": 6864, "nam": 6865, "ffer": 6866, "\u2581maps": 6867, "\u2581dal": 6868, "\u2581completing": 6869, "\u2581subsidiary": 6870, "\u2581dominant": 6871, "igh": 6872, "\u2581raymond": 6873, "\u2581iranian": 6874, "\u2581monk": 6875, "\u2581themes": 6876, "\u2581snap": 6877, "\u2581assisted": 6878, "gre": 6879, "llo": 6880, "aj": 6881, "\u2581hatch": 6882, "\u2581physician": 6883, "\u2581lets": 6884, "\u2581ultra": 6885, "\u2581guild": 6886, "aa": 6887, "\u2581simultaneously": 6888, "\u2581intermediate": 6889, "ain": 6890, "\u2581amendment": 6891, "\u2581nigeria": 6892, "mac": 6893, "great": 6894, "\u2581sees": 6895, "\u2581mysterious": 6896, "nc": 6897, "\u2581cuba": 6898, "exp": 6899, "\u2581initiated": 6900, "about": 6901, "\u2581kur": 6902, "://": 6903, "\u2581roberts": 6904, "hon": 6905, "yi": 6906, "\u2581reflect": 6907, "\u2581fortress": 6908, "cca": 6909, "\u2581yelled": 6910, "\u2581pause": 6911, "\u2581enforcement": 6912, "\u2581sail": 6913, "\u258176": 6914, "\u2581goddess": 6915, "\u2581absolutely": 6916, "ef": 6917, "\u2581designation": 6918, "national": 6919, "\u2581pier": 6920, "dio": 6921, "tas": 6922, "elo": 6923, "\u2581rogers": 6924, "\u2581immigrants": 6925, "\u2581#": 6926, "gas": 6927, "\u2581mines": 6928, "handed": 6929, "ester": 6930, "zon": 6931, "\u2581tyler": 6932, "\u2581decorated": 6933, "\u2581sandy": 6934, "\u2581certified": 6935, "\u2581intent": 6936, "rov": 6937, "vr": 6938, "\u2581believes": 6939, "\u2581stem": 6940, "oa": 6941, "league": 6942, "\u2581bust": 6943, "pri": 6944, "\u2581crosses": 6945, "\u2581congregation": 6946, "rous": 6947, "ual": 6948, "\u2581literally": 6949, "\u2581rally": 6950, "\u2581diverse": 6951, "rp": 6952, "\u2581relay": 6953, "\u2581spa": 6954, "\u2581municipalities": 6955, "\u2581archaeological": 6956, "\u2581hybrid": 6957, "\u2581bombing": 6958, "\u2581belly": 6959, "\u2581construct": 6960, "\u2581reception": 6961, "post": 6962, "\u2581mosque": 6963, "\u2581honest": 6964, "kawa": 6965, "bol": 6966, "\u2581difficulty": 6967, "\u2581biology": 6968, "1979": 6969, "\u2581destination": 6970, "\u2581pul": 6971, "\u25811990,": 6972, "\u2581interpretation": 6973, "\u2581hamlet": 6974, "\u2581tossed": 6975, "\u2581organic": 6976, "gus": 6977, "\u2581transformation": 6978, "gor": 6979, "\u2581persian": 6980, "tac": 6981, "\u2581farming": 6982, "\u2581philippine": 6983, "\u2581improvement": 6984, "\u2581dome": 6985, "wel": 6986, "\u2581drafted": 6987, "\u2581spy": 6988, "\u2581harsh": 6989, "member": 6990, "\u2581colombia": 6991, "\u2581playoffs": 6992, "\u2581closest": 6993, "jack": 6994, "\u2581doctors": 6995, "\u2581jeremy": 6996, "blue": 6997, "\u2581sequel": 6998, "\u2581torn": 6999, "families": 7000, "\u2581origins": 7001, "\u2581ker": 7002, "\u2581hed": 7003, "\u2581procedure": 7004, "rk": 7005, "\u2581reverse": 7006, "\u2581encounter": 7007, "\u2581exclusively": 7008, "\u2581abilities": 7009, "hot": 7010, "bay": 7011, "\u2581buddhist": 7012, "\u2581munich": 7013, "\u2581shops": 7014, "hm": 7015, "\u2581farmer": 7016, "smith": 7017, "\u2581tara": 7018, "\u2581error": 7019, "language": 7020, "\u2581motorcycle": 7021, "\u2581ji": 7022, "1981": 7023, "\u2581dare": 7024, "\u2581flame": 7025, "\u2581duck": 7026, "\u2581sid": 7027, "trans": 7028, "\u2581garcia": 7029, "ick": 7030, "\u2581fake": 7031, "\u2581pradesh": 7032, "\u25811887": 7033, "\u2581belongs": 7034, "\u2581vertical": 7035, "\u2581calendar": 7036, "\u2581reflected": 7037, "\u2581objective": 7038, "\u2581voyage": 7039, "\u25815:": 7040, "\u2581comprehensive": 7041, "\u2581arnold": 7042, "\u2581edwards": 7043, "\u2581skirt": 7044, "\u2581attitude": 7045, "\u2581mathematical": 7046, "\u2581pedro": 7047, "\u2581stopping": 7048, "\u2581capita": 7049, "\u2581kenya": 7050, "\u2581alt": 7051, "\u2581neu": 7052, "\u2581relieved": 7053, "iri": 7054, "1960": 7055, "\u2581trent": 7056, "human": 7057, "\u2581cruz": 7058, "\u2581impressed": 7059, "ota": 7060, "fc": 7061, "\u2581plenty": 7062, "\u2581prototype": 7063, "\u2581photos": 7064, "hang": 7065, "\u2581amsterdam": 7066, "eva": 7067, "\u2581visa": 7068, "\u2581divine": 7069, "\u2581absolute": 7070, "\u2581welfare": 7071, "\u2581dakota": 7072, "\u2581releases": 7073, "vid": 7074, "\u2581filming": 7075, "mos": 7076, "\u2581ruler": 7077, "\u2581blu": 7078, "\u2581restricted": 7079, "\u2581stroke": 7080, "pea": 7081, "\u2581reveals": 7082, "\u2581maj": 7083, "\u2581heroes": 7084, "\u2581logic": 7085, "\u2581swung": 7086, "\u2581riley": 7087, "\u2581julie": 7088, "\u2581cottage": 7089, "\u2581stakes": 7090, "blo": 7091, "\u2581airlines": 7092, "\u2581screaming": 7093, "\u2581manufacturer": 7094, "\u2581trump": 7095, "\u2581og": 7096, "\u2581mil": 7097, "\u2581declaration": 7098, "\u2581microsoft": 7099, "uta": 7100, "\u2581curve": 7101, "\u2581rein": 7102, "\u2581py": 7103, "\u2581increases": 7104, "\u2581internationally": 7105, "\u2581arrangements": 7106, "\u2581traditions": 7107, "\u2581survival": 7108, "\u2581stake": 7109, "\u2581burns": 7110, "\u2581recall": 7111, "\u2581housed": 7112, "\u2581bart": 7113, "400": 7114, "\u2581spots": 7115, "\u2581undergraduate": 7116, "tone": 7117, "\u2581chocolate": 7118, "\u2581specialized": 7119, "\u2581grows": 7120, "\u2581download": 7121, "\u2581crow": 7122, "\u2581carr": 7123, "\u2581yesterday": 7124, "\u2581vest": 7125, "\u2581sensation": 7126, "wr": 7127, "\u2581altitude": 7128, "\u2581manufactured": 7129, "\u2581pleased": 7130, "\u2581qua": 7131, "\u2581slept": 7132, "rol": 7133, "\u2581lighting": 7134, "\u2581enormous": 7135, "\u2581vas": 7136, "\u2581lt": 7137, "elected": 7138, "\u2581firing": 7139, "ovich": 7140, "lton": 7141, "arian": 7142, "\u25811881": 7143, "\u2581curse": 7144, "\u2581incumbent": 7145, "\u2581coins": 7146, "ux": 7147, "\u2581regardless": 7148, "uga": 7149, "aud": 7150, "\u2581buses": 7151, "\u2581balls": 7152, "\u2581describing": 7153, "1976": 7154, "\u2581focuses": 7155, "\u2581inaugural": 7156, "\u2581nickname": 7157, "\u2581assume": 7158, "ory": 7159, "\u2581measured": 7160, "\u2581heights": 7161, "\u2581accommodate": 7162, "\u2581recognised": 7163, "\u2581lau": 7164, "uncredited": 7165, "\u2581railways": 7166, "\u2581cas": 7167, "\u2581tigers": 7168, "\u2581outbreak": 7169, "\u2581underneath": 7170, "ther": 7171, "\u2581ras": 7172, "\u2581denver": 7173, "\u2581ignore": 7174, "\u2581gig": 7175, "\u2581sol": 7176, "court": 7177, "\u2581excited": 7178, "\u2581inherited": 7179, "\u2581harvey": 7180, "\u2581mixture": 7181, "\u2581observation": 7182, "\u2581rider": 7183, "\u25811886": 7184, "\u2581ski": 7185, "\u2581nationalist": 7186, "screen": 7187, "\u2581dylan": 7188, "\u2581thor": 7189, "pha": 7190, "\u2581listened": 7191, "ching": 7192, "sley": 7193, "\u2581keen": 7194, "\u2581michel": 7195, "\u2581pressing": 7196, "\u2581tier": 7197, "\u2581athletes": 7198, "lea": 7199, "\u2581personally": 7200, "dc": 7201, "ses": 7202, "\u2581frozen": 7203, "\u2581mario": 7204, "\u2581abraham": 7205, "\u2581extend": 7206, "\u2581grammar": 7207, "\u2581structural": 7208, "\u2581drake": 7209, "\u2581graph": 7210, "\u2581aboard": 7211, "\u2581pursuit": 7212, "\u2581chancellor": 7213, "\u2581praise": 7214, "gui": 7215, "\u258158": 7216, "1978": 7217, "kes": 7218, "week": 7219, "\u2581judgment": 7220, "aceae": 7221, "\u2581gesture": 7222, "\u2581cult": 7223, "\u2581facade": 7224, "\u2581unsuccessful": 7225, "\u2581mod": 7226, "\u2581lists": 7227, "\u2581norfolk": 7228, "bc": 7229, "than": 7230, "\u2581references": 7231, "cla": 7232, "\u2581playoff": 7233, "\u2581qa": 7234, "\u2581sierra": 7235, "\u2581servant": 7236, "\u2581kay": 7237, "\u2581bulk": 7238, "\u2581squeezed": 7239, "\u2581belle": 7240, "\u2581bearing": 7241, "\u2581meal": 7242, "\u2581florence": 7243, "\u2581shaft": 7244, "\u2581alberta": 7245, "\u2581brow": 7246, "\u2581departed": 7247, "\u2581promoting": 7248, "\u2581trapped": 7249, "\u2581failing": 7250, "\u2581deaths": 7251, "kai": 7252, "gam": 7253, "\u2581blinked": 7254, "\u2581delay": 7255, "rel": 7256, "cade": 7257, "\u2581shallow": 7258, "name": 7259, "1975": 7260, "sym": 7261, "\u2581plates": 7262, "\u2581mcc": 7263, "\u2581editorial": 7264, "\u2581corresponding": 7265, "\u2581sacrifice": 7266, "\u2581brushed": 7267, "\u2581touchdown": 7268, "\u2581epic": 7269, "strom": 7270, "\u2581temperatures": 7271, "\u2581coaching": 7272, "\u2581brisbane": 7273, "\u2581carriage": 7274, "\u2581canyon": 7275, "person": 7276, "\u2581stefan": 7277, "\u2581halt": 7278, "\u2581guilt": 7279, "\u2581shots": 7280, "\u2581helicopter": 7281, "founded": 7282, "\u2581laser": 7283, "\u2581partial": 7284, "hana": 7285, "\u2581trigger": 7286, "\u2581ven": 7287, "\u2581hungry": 7288, "\u2581aspect": 7289, "\u2581wont": 7290, "\u2581jennifer": 7291, "miss": 7292, "makers": 7293, "\u2581significance": 7294, "\u2581travelled": 7295, "\u2581distinctive": 7296, "\u2581shakespeare": 7297, "gie": 7298, "\u2581rent": 7299, "\u2581athens": 7300, "rail": 7301, "\u2581periods": 7302, "\u2581olivia": 7303, "\u2581instruction": 7304, "\u2581demons": 7305, "\u2581speakers": 7306, "meter": 7307, "\u2581territorial": 7308, "\u2581dub": 7309, "pra": 7310, "\u2581demands": 7311, "\u2581printing": 7312, "\u2581gauge": 7313, "\u2581kane": 7314, "\u2581unincorporated": 7315, "\u2581600": 7316, "mura": 7317, "stop": 7318, "anne": 7319, "\u2581diesel": 7320, "\u2581alley": 7321, "\u25811884": 7322, "\u258167": 7323, "\u2581negotiations": 7324, "hua": 7325, "\u2581characteristic": 7326, "\u2581mob": 7327, "pit": 7328, "\u2581carries": 7329, "\u2581youtube": 7330, "\u2581patch": 7331, "pol": 7332, "\u2581cox": 7333, "\u2581prices": 7334, "\u2581examination": 7335, "\u2581coup": 7336, "vie": 7337, "kon": 7338, "\u2581evolved": 7339, "\u2581recipient": 7340, "\u2581northwestern": 7341, "\u2581accessible": 7342, "thi": 7343, "\u2581tomb": 7344, "\u2581escort": 7345, "\u2581explains": 7346, "\u2581maritime": 7347, "\u2581dining": 7348, "\u2581kas": 7349, "spect": 7350, "zar": 7351, "\u2581wallace": 7352, "\u2581inch": 7353, "\u2581grid": 7354, "\u2581collapsed": 7355, "finals": 7356, "\u2581colleges": 7357, "\u2581steep": 7358, "hin": 7359, "\u2581nevada": 7360, "\u2581mae": 7361, "\u2581employee": 7362, "its": 7363, "\u2581tenth": 7364, "\u25811882": 7365, "\u2581divorce": 7366, "race": 7367, "\u2581submitted": 7368, "\u2581scores": 7369, "yon": 7370, "\u2581eligible": 7371, "\u2581cheese": 7372, "john": 7373, "\u258159": 7374, "\u2581investigate": 7375, "tron": 7376, "uv": 7377, "\u2581referring": 7378, "\u2581resumed": 7379, "\u2581taxi": 7380, "\u2581consultant": 7381, "\u2581depot": 7382, "\u2581clo": 7383, "\u2581wheels": 7384, "\u2581chill": 7385, "lor": 7386, "\u2581permitted": 7387, "\u2581rama": 7388, "\u2581ivy": 7389, "\u2581respective": 7390, "chet": 7391, "\u2581vary": 7392, "berry": 7393, "\u2581valid": 7394, "\u258166": 7395, "1,0": 7396, "\u2581bol": 7397, "\u2581essentially": 7398, "shed": 7399, "\u2581grades": 7400, "bell": 7401, "\u2581cork": 7402, "\u2581congressional": 7403, "\u2581cancelled": 7404, "\u2581shipping": 7405, "\u2581otto": 7406, "\u2581locomotives": 7407, "\u2581impressive": 7408, "\u2581arrow": 7409, "bound": 7410, "emi": 7411, "since": 7412, "\u2581watson": 7413, "\u2581magazines": 7414, "\u2581vel": 7415, "\u2581armor": 7416, "\u2581booth": 7417, "\u2581mau": 7418, "\u2581patron": 7419, "\u2581brass": 7420, "\u2581clients": 7421, "\u2581liga": 7422, "\u2581walks": 7423, "ded": 7424, "\u2581diplomatic": 7425, "aging": 7426, "iko": 7427, "\u2581properly": 7428, "\u2581trumpet": 7429, "illo": 7430, "dp": 7431, "rated": 7432, "\u2581prey": 7433, "\u2581settlements": 7434, "\u2581announcement": 7435, "iata": 7436, "lane": 7437, "\u2581hebrew": 7438, "cp": 7439, "nel": 7440, "\u2581veteran": 7441, "\u2581gather": 7442, "boat": 7443, "\u2581worker": 7444, "\u2581muslims": 7445, "\u2581jun": 7446, "\u2581taxes": 7447, "\u2581bitter": 7448, "\u2581originated": 7449, "\u2581interviews": 7450, "ular": 7451, "oy": 7452, "\u2581petition": 7453, "\u2581exhibit": 7454, "ech": 7455, "\u2581hollow": 7456, "enburg": 7457, "\u2581pastor": 7458, "\u2581lind": 7459, "\u2581cluster": 7460, "\u2581exile": 7461, "\u2581powered": 7462, "\u2581mortal": 7463, "\u2581yale": 7464, "\u2581dragged": 7465, "mara": 7466, "real": 7467, "\u2581humor": 7468, "\u2581mainstream": 7469, "\u2581invitation": 7470, "\u2581scattered": 7471, "\u2581brilliant": 7472, "\u2581pairs": 7473, "\u2581simpson": 7474, "hra": 7475, "\u2581fail": 7476, "\u2581nancy": 7477, "ito": 7478, "\u2581engage": 7479, "\u2581relevant": 7480, "\u2581beaten": 7481, "\u2581liu": 7482, "amba": 7483, "\u2581tables": 7484, "\u2581banned": 7485, "\u2581fog": 7486, "\u2581export": 7487, "\u2581kos": 7488, "\u2581historians": 7489, "pers": 7490, "fan": 7491, "\u2581banner": 7492, "\u2581bridges": 7493, "gna": 7494, "\u2581wilhelm": 7495, "atory": 7496, "\u2581vector": 7497, "\u2581columns": 7498, "\u2581automatically": 7499, "een": 7500, "\u2581approaches": 7501, "ili": 7502, "\u2581lots": 7503, "ations": 7504, "\u2581convicted": 7505, "\u2581ox": 7506, "\u2581locomotive": 7507, "\u2581sap": 7508, "fine": 7509, "ander": 7510, "\u2581rational": 7511, "\u2581karen": 7512, "\u2581regulation": 7513, "\u2581usage": 7514, "\u2581burial": 7515, "\u2581yang": 7516, "\u2581opponents": 7517, "\u2581fastest": 7518, "cra": 7519, "\u2581venice": 7520, "\u2581doctrine": 7521, "ax": 7522, "ello": 7523, "\u2581attacking": 7524, "\u2581chip": 7525, "sche": 7526, "\u2581coaches": 7527, "\u2581chen": 7528, "\u2581deer": 7529, "\u2581horizon": 7530, "\u2581harper": 7531, "ls": 7532, "\u2581charm": 7533, "\u2581comments": 7534, "school": 7535, "\u2581nad": 7536, "nica": 7537, "tine": 7538, "\u2581christianity": 7539, "\u2581celtic": 7540, "\u2581elaborate": 7541, "\u2581raven": 7542, "\u2581scandal": 7543, "\u2581nord": 7544, "\u2581constantly": 7545, "\u2581shade": 7546, "\u2581cincinnati": 7547, "\u2581contributing": 7548, "rb": 7549, "\u2581sits": 7550, "\u2581suspect": 7551, "ising": 7552, "\u2581mala": 7553, "\u2581carved": 7554, "\u2581leeds": 7555, "\u2581purse": 7556, "\u2581towers": 7557, "\u2581qualification": 7558, "\u2581frontier": 7559, "\u2581commanding": 7560, "\u2581messages": 7561, "\u2581hank": 7562, "sub": 7563, "\u2581rim": 7564, "itz": 7565, "\u2581stack": 7566, "\u2581mouse": 7567, "\u2581fury": 7568, "\u2581topics": 7569, "\u2581mol": 7570, "\u258172": 7571, "ket": 7572, "\u2581verse": 7573, "\u2581glasses": 7574, "\u2581preparing": 7575, "stock": 7576, "kill": 7577, "\u2581instructor": 7578, "\u2581crashed": 7579, "\u2581festivals": 7580, "\u2581liberation": 7581, "\u2581payment": 7582, "\u2581marshal": 7583, "\u2581defended": 7584, "\u2581bennett": 7585, "8,000": 7586, "\u2581struggling": 7587, "\u2581brush": 7588, "\u2581plaza": 7589, "\u25811988,": 7590, "\u2581ottawa": 7591, "roy": 7592, "\u2581inducted": 7593, "\u2581gram": 7594, "\u2581challenges": 7595, "\u2581narrowed": 7596, "got": 7597, "\u2581rub": 7598, "\u2581saving": 7599, "\u2581doug": 7600, "ending": 7601, "\u2581acc": 7602, "\u2581rings": 7603, "\u2581civic": 7604, "\u2581massacre": 7605, "\u2581mara": 7606, "\u2581barcelona": 7607, "\u2581surely": 7608, "\u2581sliding": 7609, "\u2581hardware": 7610, "\u2581bolt": 7611, "\u2581variable": 7612, "\u2581sm": 7613, "hurst": 7614, "\u2581queens": 7615, "\u2581signals": 7616, "\u2581peer": 7617, "\u2581meta": 7618, "anga": 7619, "\u2581brings": 7620, "\u2581resignation": 7621, "\u2581shorter": 7622, "zia": 7623, "\u2581barrel": 7624, "\u2581fond": 7625, "\u2581monitor": 7626, "\u2581bern": 7627, "founder": 7628, "aro": 7629, "\u2581flights": 7630, "\u2581tested": 7631, "gard": 7632, "\u2581pillow": 7633, "\u2581equally": 7634, "\u2581recover": 7635, "\u2581firmly": 7636, "\u2581attract": 7637, "cro": 7638, "\u2581phillips": 7639, "mine": 7640, "\u2581mos": 7641, "\u2581pipe": 7642, "\u2581mutual": 7643, "\u2581spaces": 7644, "\u2581advocate": 7645, "\u2581panama": 7646, "half": 7647, "1973": 7648, "\u25811987,": 7649, "\u2581instructions": 7650, "\u2581nowhere": 7651, "\u2581functional": 7652, "\u2581bunch": 7653, "cis": 7654, "\u2581dai": 7655, "\u2581mentor": 7656, "\u2581ranging": 7657, "nov": 7658, "\u2581visits": 7659, "ike": 7660, "\u2581fever": 7661, "mot": 7662, "dou": 7663, "600": 7664, "eb": 7665, "\u2581innovation": 7666, "\u2581guitars": 7667, "\u2581hughes": 7668, "beat": 7669, "\u2581levi": 7670, "raj": 7671, "1972": 7672, "eck": 7673, "\u2581riders": 7674, "\u2581rated": 7675, "\u2581succession": 7676, "\u2581obama": 7677, "\u2581heir": 7678, "\u2581yi": 7679, "\u2581pig": 7680, "\u2581rode": 7681, "\u2581frost": 7682, "\u25811883": 7683, "works": 7684, "gent": 7685, "\u2581curious": 7686, "\u2581marco": 7687, "\u2581germans": 7688, "\u2581idol": 7689, "headed": 7690, "grad": 7691, "music": 7692, "hof": 7693, "\u2581rebel": 7694, "\u2581exhibited": 7695, "6,000": 7696, "\u2581diseases": 7697, "\u2581101": 7698, "\u2581palmer": 7699, "\u2581saudi": 7700, "\u2581saxophone": 7701, "\u2581filling": 7702, "cross": 7703, "\u2581stranger": 7704, "\u2581customer": 7705, "\u2581governments": 7706, "wyn": 7707, "\u2581restaurants": 7708, "phone": 7709, "\u2581symptoms": 7710, "\u2581gr": 7711, "lies": 7712, "\u2581occasional": 7713, "\u2581healthy": 7714, "\u2581experiments": 7715, "oda": 7716, "\u2581boulevard": 7717, "\u2581array": 7718, "1977": 7719, "\u2581reconstruction": 7720, "pf": 7721, "\u2581slam": 7722, "\u2581participating": 7723, "\u2581philosopher": 7724, "borough": 7725, "\u2581caroline": 7726, "\u2581behaviour": 7727, "\u2581freight": 7728, "\u2581renaissance": 7729, "\u2581eagles": 7730, "\u2581quartet": 7731, "april": 7732, "\u2581anton": 7733, "\u2581hus": 7734, "ire": 7735, "tun": 7736, "\u2581tissue": 7737, "apa": 7738, "\u2581phd": 7739, "\u2581favourite": 7740, "\u2581syria": 7741, "\u2581clouds": 7742, "\u2581excitement": 7743, "\u2581roland": 7744, "\u2581depicted": 7745, "\u2581flute": 7746, "\u2581jacques": 7747, "eight": 7748, "\u2581react": 7749, "\u25811945,": 7750, "\u2581basement": 7751, "\u2581expecting": 7752, "app": 7753, "\u2581interaction": 7754, "\u2581henri": 7755, "\u2581punch": 7756, "lian": 7757, "\u2581installation": 7758, "ates": 7759, "ios": 7760, "\u2581theories": 7761, "\u2581profession": 7762, "pic": 7763, "\u2581jerked": 7764, "\u2581reader": 7765, "\u2581sau": 7766, "\u2581targets": 7767, "\u2581marsh": 7768, "\u2581quest": 7769, "\u2581pont": 7770, "col": 7771, "\u2581shrine": 7772, "\u2581urge": 7773, "\u2581computers": 7774, "\u2581http": 7775, "ico": 7776, "\u2581bis": 7777, "\u2581helps": 7778, "\u2581sor": 7779, "\u2581legacy": 7780, "\u2581gym": 7781, "\u2581dynamic": 7782, "\u2581breed": 7783, "\u2581doubles": 7784, "yang": 7785, "tl": 7786, "\u258199": 7787, "\u2581martial": 7788, "1974": 7789, "\u2581closure": 7790, "\u25811986,": 7791, "\u2581camps": 7792, "\u2581warsaw": 7793, "owski": 7794, "ois": 7795, "\u2581focusing": 7796, "\u2581removal": 7797, "itis": 7798, "\u2581dancer": 7799, "odi": 7800, "\u2581baronet": 7801, "\u2581extensively": 7802, "\u2581bulgarian": 7803, "\u2581thai": 7804, "phi": 7805, "\u2581democrats": 7806, "\u2581readers": 7807, "\u25811878": 7808, "wind": 7809, "\u2581signature": 7810, "\u2581honors": 7811, "\u2581excellence": 7812, "1971": 7813, "\u2581proportion": 7814, "\u2581songwriter": 7815, "\u2581ernest": 7816, "august": 7817, "\u2581secrets": 7818, "\u2581sexy": 7819, "sic": 7820, "\u2581beau": 7821, "\u2581moor": 7822, "\u2581franco": 7823, "lene": 7824, "mid": 7825, "\u2581protests": 7826, "\u2581imagined": 7827, "\u2581mainland": 7828, "\u2581afford": 7829, "\u2581sensitive": 7830, "\u2581olive": 7831, "\u2581addressed": 7832, "\u2581picking": 7833, "\u2581notion": 7834, "\u2581alter": 7835, "\u2581efficiency": 7836, "\u2581talks": 7837, "shu": 7838, "\u2581practically": 7839, "\u2581edges": 7840, "\u2581lar": 7841, "eastern": 7842, "sun": 7843, "\u2581twist": 7844, "\u2581circles": 7845, "\u2581enrolled": 7846, "\u2581manga": 7847, "\u2581psychological": 7848, "jur": 7849, "rine": 7850, "\u2581curled": 7851, "ivo": 7852, "\u2581suspension": 7853, "june": 7854, "\u2581samples": 7855, "craft": 7856, "\u2581journalism": 7857, "\u2581corruption": 7858, "\u2581ted": 7859, "zh": 7860, "order": 7861, "\u2581radiation": 7862, "\u2581alert": 7863, "very": 7864, "dimensional": 7865, "\u2581temporarily": 7866, "\u258164,": 7867, "shot": 7868, "\u2581fairy": 7869, "\u2581lessons": 7870, "\u2581intensity": 7871, "\u2581curtis": 7872, "\u2581workshop": 7873, "rant": 7874, "\u2581wei": 7875, "\u2581directions": 7876, "\u2581magnetic": 7877, "\u2581ace": 7878, "\u2581reward": 7879, "\u2581byzantine": 7880, "\u2581ties": 7881, "ering": 7882, "\u2581hut": 7883, "\u2581argentine": 7884, "\u2581judicial": 7885, "\u2581revised": 7886, "\u2581strings": 7887, "\u2581liam": 7888, "active": 7889, "\u2581gan": 7890, "\u2581wiped": 7891, "\u2581newcastle": 7892, "\u2581variation": 7893, "\u2581manuscript": 7894, "\u2581dissolved": 7895, "\u2581110": 7896, "\u2581torture": 7897, "\u2581theatrical": 7898, "\u2581hitler": 7899, "\u2581grandson": 7900, "\u2581gothic": 7901, "shaw": 7902, "mut": 7903, "\u2581heels": 7904, "\u2581ford": 7905, "released": 7906, "\u2581roth": 7907, "\u2581brave": 7908, "\u2581tub": 7909, "\u2581concentrated": 7910, "eer": 7911, "\u2581shame": 7912, "wy": 7913, "nation": 7914, "700": 7915, "\u2581glory": 7916, "july": 7917, "\u2581preston": 7918, "\u2581seized": 7919, "\u2581generate": 7920, "\u2581#2": 7921, "\u25811875": 7922, "\u2581defender": 7923, "\u2581awake": 7924, "\u2581decree": 7925, "\u2581veterans": 7926, "\u2581discipline": 7927, "ingham": 7928, "\u2581consist": 7929, "dorf": 7930, "\u2581montana": 7931, "\u2581trailer": 7932, "\u2581battles": 7933, "\u2581woke": 7934, "\u2581sk": 7935, "\u258168": 7936, "\u2581rushing": 7937, "\u2581nas": 7938, "lines": 7939, "looking": 7940, "\u2581sophie": 7941, "\u2581disorder": 7942, "\u2581herald": 7943, "gro": 7944, "\u2581seeds": 7945, "north": 7946, "\u2581breaks": 7947, "\u2581vladimir": 7948, "\u2581supplied": 7949, "\u2581indicating": 7950, "\u2581improvements": 7951, "\u2581succeed": 7952, "\u2581reg": 7953, "\u2581convoy": 7954, "\u2581chang": 7955, "\u2581electronics": 7956, "\u2581tra": 7957, "\u2581slot": 7958, "\u2581rookie": 7959, "\u2581cuts": 7960, "\u2581flashed": 7961, "tai": 7962, "\u2581travels": 7963, "rup": 7964, "\u2581jen": 7965, "\u2581challenged": 7966, "\u2581zi": 7967, "\u2581quarterback": 7968, "\u258195": 7969, "\u2581myth": 7970, "\u2581theology": 7971, "haus": 7972, "\u2581thinks": 7973, "\u2581reducing": 7974, "\u2581striking": 7975, "\u2581franz": 7976, "dha": 7977, "\u2581montgomery": 7978, "\u2581petersburg": 7979, "\u2581accent": 7980, "\u2581colonies": 7981, "\u2581attractive": 7982, "\u2581resist": 7983, "\u2581warmth": 7984, "\u2581croatia": 7985, "tter": 7986, "\u2581warfare": 7987, "\u2581handling": 7988, "ente": 7989, "\u2581connor": 7990, "speaking": 7991, "\u2581presents": 7992, "\u2581800": 7993, "\u2581physically": 7994, "\u2581emerging": 7995, "\u2581blanket": 7996, "\u2581deemed": 7997, "\u2581tense": 7998, "\u2581customs": 7999, "\u2581naturally": 8000, "\u2581spare": 8001, "mani": 8002, "\u25811985,": 8003, "\u2581loyal": 8004, "til": 8005, "\u2581bother": 8006, "\u2581transform": 8007, "uka": 8008, "\u2581lid": 8009, "\u2581pitt": 8010, "rite": 8011, "\u2581kre": 8012, "\u2581blond": 8013, "\u2581runway": 8014, "\u2581nepal": 8015, "das": 8016, "\u2581footage": 8017, "oe": 8018, "\u2581pretend": 8019, "\u2581equation": 8020, "\u2581biography": 8021, "\u2581lawsuit": 8022, "yar": 8023, "group": 8024, "\u2581miguel": 8025, "\u2581wellington": 8026, "arch": 8027, "\u2581kom": 8028, "\u2581airfield": 8029, "aged": 8030, "grade": 8031, "pus": 8032, "kk": 8033, "\u2581bride": 8034, "\u2581palestinian": 8035, "\u2581marathon": 8036, "\u2581jessica": 8037, "\u2581pirates": 8038, "\u2581berkeley": 8039, "yr": 8040, "1969": 8041, "\u2581francois": 8042, "\u2581architects": 8043, "\u25811871": 8044, "\u25811879": 8045, "alis": 8046, "french": 8047, "\u25811876": 8048, "\u2581revolt": 8049, "\u2581admission": 8050, "\u2581lesser": 8051, "\u2581elevated": 8052, "\u2581kurt": 8053, "\u2581releasing": 8054, "\u2581sue": 8055, "\u2581faded": 8056, "\u2581auction": 8057, "\u2581handsome": 8058, "\u2581amazon": 8059, "\u2581swift": 8060, "aux": 8061, "\u2581molecular": 8062, "\u2581moderate": 8063, "\u2581bloom": 8064, "\u2581hind": 8065, "\u2581raced": 8066, "\u2581lightly": 8067, "front": 8068, "\u2581dialect": 8069, "\u2581heath": 8070, "\u2581pulls": 8071, "\u2581wheat": 8072, "still": 8073, "\u2581ritual": 8074, "\u2581difficulties": 8075, "osis": 8076, "wide": 8077, "\u2581integration": 8078, "mail": 8079, "\u2581societies": 8080, "\u2581repeatedly": 8081, "\u2581conquest": 8082, "\u2581grateful": 8083, "\u2581specialist": 8084, "\u2581loving": 8085, "cum": 8086, "\u2581autonomous": 8087, "\u2581elbow": 8088, "\u2581maurice": 8089, "\u2581magical": 8090, "\u2581configuration": 8091, "\u2581fen": 8092, "\u2581cc": 8093, "\u2581carpet": 8094, "bourne": 8095, "dd": 8096, "\u2581fountain": 8097, "\u2581ministers": 8098, "\u2581ei": 8099, "ald": 8100, "tree": 8101, "\u2581attraction": 8102, "\u2581powder": 8103, "\u2581enters": 8104, "\u2581fisher": 8105, "\u2581della": 8106, "\u2581vulnerable": 8107, "october": 8108, "etti": 8109, "both": 8110, "\u2581archives": 8111, "vat": 8112, "\u2581proteins": 8113, "\u2581pilots": 8114, "\u2581erik": 8115, "\u2581ronald": 8116, "\u2581echo": 8117, "\u2581wrap": 8118, "\u2581amanda": 8119, "\u2581boxes": 8120, "\u2581preservation": 8121, "vert": 8122, "\u2581athlete": 8123, "\u2581newton": 8124, "\u2581violet": 8125, "\u2581southeastern": 8126, "1968": 8127, "\u2581server": 8128, "\u2581sto": 8129, "\u2581clearing": 8130, "\u2581boxing": 8131, "\u2581sake": 8132, "\u2581commenced": 8133, "\u2581clarke": 8134, "berger": 8135, "bing": 8136, "\u2581accurate": 8137, "\u2581md": 8138, "\u2581heavyweight": 8139, "\u2581mist": 8140, "\u25811840": 8141, "\u2581serie": 8142, "\u2581lecture": 8143, "\u2581google": 8144, "vir": 8145, "\u2581blog": 8146, "poli": 8147, "\u2581mack": 8148, "song": 8149, "tta": 8150, "\u2581monarch": 8151, "\u2581bryan": 8152, "ides": 8153, "oto": 8154, "\u2581circular": 8155, "\u2581assists": 8156, "np": 8157, "\u2581porter": 8158, "\u2581damp": 8159, "\u2581altar": 8160, "\u2581eli": 8161, "\u2581miracle": 8162, "\u2581generations": 8163, "isa": 8164, "\u2581sailing": 8165, "\u2581polar": 8166, "home": 8167, "\u2581azerbaijan": 8168, "turn": 8169, "\u2581strict": 8170, "\u2581qu": 8171, "cen": 8172, "ying": 8173, "phy": 8174, "too": 8175, "\u2581extending": 8176, "\u2581courage": 8177, "lai": 8178, "\u2581annie": 8179, "\u2581writings": 8180, "\u2581nursing": 8181, "seven": 8182, "\u2581breeding": 8183, "ml": 8184, "\u2581bran": 8185, "\u2581joke": 8186, "\u2581matrix": 8187, "\u2581moss": 8188, "\u2581oz": 8189, "quer": 8190, "\u2581bha": 8191, "\u2581dee": 8192, "\u2581guidance": 8193, "\u2581variations": 8194, "wait": 8195, "\u2581bulgaria": 8196, "1/": 8197, "asi": 8198, "\u2581automobile": 8199, "\u2581influences": 8200, "\u2581retain": 8201, "\u2581doctorate": 8202, "\u2581collar": 8203, "\u25811868": 8204, "\u2581chaos": 8205, "\u2581counsel": 8206, "\u25811866": 8207, "\u2581encountered": 8208, "date": 8209, "\u2581sting": 8210, "\u2581kisses": 8211, "zin": 8212, "\u2581lac": 8213, "\u2581stored": 8214, "\u2581maintaining": 8215, "\u2581humanity": 8216, "\u2581felix": 8217, "\u2581renowned": 8218, "\u2581louise": 8219, "vari": 8220, "\u2581reich": 8221, "oi": 8222, "\u2581relaxed": 8223, "\u2581consistent": 8224, "\u2581flank": 8225, "hoe": 8226, "enko": 8227, "\u25811867": 8228, "wheel": 8229, "\u2581methodist": 8230, "series": 8231, "etta": 8232, "\u2581cooking": 8233, "ssa": 8234, "750": 8235, "\u2581mak": 8236, "\u2581venezuela": 8237, "\u25811984,": 8238, "\u2581gur": 8239, "pad": 8240, "\u2581delayed": 8241, "\u2581spite": 8242, "\u2581efficient": 8243, "\u2581bout": 8244, "nda": 8245, "\u25811872": 8246, "\u2581java": 8247, "\u2581populations": 8248, "jin": 8249, "\u2581brooks": 8250, "\u2581tide": 8251, "\u2581sen": 8252, "\u2581rape": 8253, "\u2581hunger": 8254, "\u2581bark": 8255, "\u2581fal": 8256, "\u2581hannah": 8257, "dian": 8258, "\u2581cure": 8259, "media": 8260, "iana": 8261, "\u2581jungle": 8262, "\u2581prospect": 8263, "would": 8264, "escu": 8265, "sal": 8266, "\u2581blew": 8267, "\u2581neighboring": 8268, "\u2581shanghai": 8269, "\u2581butter": 8270, "dle": 8271, "\u2581planted": 8272, "jer": 8273, "\u2581nam": 8274, "\u2581routine": 8275, "\u2581eyebrows": 8276, "2018": 8277, "rad": 8278, "lived": 8279, "vik": 8280, "\u2581portal": 8281, "\u2581johann": 8282, "\u2581sony": 8283, "\u2581exploration": 8284, "\u2581compact": 8285, "\u2581casino": 8286, "\u2581twins": 8287, "\u2581robot": 8288, "\u2581tours": 8289, "september": 8290, "rf": 8291, "\u2581embassy": 8292, "tracks": 8293, "load": 8294, "pes": 8295, "\u2581savage": 8296, "nothing": 8297, "\u2581consciousness": 8298, "\u2581gaining": 8299, "\u2581sanctuary": 8300, "\u2581elect": 8301, "\u2581strain": 8302, "\u2581topic": 8303, "max": 8304, "\u2581airline": 8305, "\u2581stiff": 8306, "\u2581jared": 8307, "\u2581warehouse": 8308, "lou": 8309, "\u2581happiness": 8310, "uck": 8311, "\u2581separation": 8312, "\u2581scan": 8313, "\u2581imprisoned": 8314, "\u2581satisfied": 8315, "\u2581sullivan": 8316, "\u2581resting": 8317, "eli": 8318, "\u2581floating": 8319, "\u2581variant": 8320, "\u2581collaborated": 8321, "\u2581commons": 8322, "\u2581maid": 8323, "seat": 8324, "\u2581linda": 8325, "lib": 8326, "\u2581shy": 8327, "sco": 8328, "\u2581situations": 8329, "\u2581consumption": 8330, "ulu": 8331, "\u2581manufacture": 8332, "\u2581encourage": 8333, "\u2581pala": 8334, "\u2581rabbit": 8335, "\u2581poured": 8336, "erie": 8337, "\u2581delaware": 8338, "\u2581lynn": 8339, "\u2581grande": 8340, "\u2581rou": 8341, "hart": 8342, "\u2581complicated": 8343, "\u2581bald": 8344, "\u2581fra": 8345, "\u2581prevented": 8346, "\u2581bach": 8347, "songwriter": 8348, "\u2581hai": 8349, "\u2581banking": 8350, "\u2581graphics": 8351, "rit": 8352, "path": 8353, "ics": 8354, "ode": 8355, "\u2581christians": 8356, "ame": 8357, "\u2581exterior": 8358, "\u2581receives": 8359, "\u2581consequences": 8360, "frame": 8361, "\u2581luc": 8362, "\u2581recreation": 8363, "\u2581literacy": 8364, "\u2581experts": 8365, "range": 8366, "\u2581$5": 8367, "\u2581navigation": 8368, "\u2581jenny": 8369, "\u2581administered": 8370, "\u2581approaching": 8371, "\u258178": 8372, "\u2581uncertain": 8373, "\u2581lad": 8374, "step": 8375, "\u2581demo": 8376, "\u2581sheffield": 8377, "cz": 8378, "\u2581maggie": 8379, "chu": 8380, "\u2581cher": 8381, "\u2581stanford": 8382, "ath": 8383, "\u2581permanently": 8384, "\u2581unity": 8385, "\u2581mere": 8386, "\u2581neutral": 8387, "\u2581blocked": 8388, "ude": 8389, "\u2581cake": 8390, "\u2581armies": 8391, "\u2581testament": 8392, "\u2581chester": 8393, "\u2581arrives": 8394, "\u2581holly": 8395, "\u2581amber": 8396, "ving": 8397, "\u2581copyright": 8398, "\u2581lecturer": 8399, "\u2581fucking": 8400, "\u2581hamburg": 8401, "\u2581solve": 8402, "\u2581gasped": 8403, "\u2581syndrome": 8404, "\u2581dash": 8405, "\u2581convert": 8406, "tig": 8407, "1966": 8408, "\u2581hey": 8409, "\u2581hopes": 8410, "self": 8411, "iro": 8412, "\u2581screenplay": 8413, "\u2581eugene": 8414, "\u2581landmark": 8415, "oke": 8416, "\u2581sai": 8417, "\u2581tactical": 8418, "\u2581outfit": 8419, "\u25811874": 8420, "\u2581rom": 8421, "\u2581quarters": 8422, "\u2581halfway": 8423, "\u2581mtv": 8424, "\u2581hurry": 8425, "\u2581bases": 8426, "\u2581assignment": 8427, "\u2581commentary": 8428, "\u25811877": 8429, "gl": 8430, "\u2581ellis": 8431, "door": 8432, "\u2581campaigns": 8433, "\u2581beta": 8434, "\u2581ruins": 8435, "base": 8436, "\u25811982,": 8437, "ically": 8438, "1950": 8439, "\u2581roosevelt": 8440, "\u2581isnt": 8441, "\u2581ap": 8442, "\u2581migration": 8443, "\u2581shane": 8444, "\u2581transformed": 8445, "\u2581tightened": 8446, "\u2581kumar": 8447, "give": 8448, "\u2581flee": 8449, "\u2581mercy": 8450, "\u2581evan": 8451, "\u2581pseudo": 8452, "\u2581edmund": 8453, "\u2581restore": 8454, "\u2581climbing": 8455, "\u2581relating": 8456, "\u2581rubber": 8457, "leigh": 8458, "\u25811944,": 8459, "\u2581croatian": 8460, "eller": 8461, "dog": 8462, "\u2581casualties": 8463, "800": 8464, "\u2581fierce": 8465, "\u2581suck": 8466, "\u2581fro": 8467, "\u2581emi": 8468, "\u2581tram": 8469, "\u2581infant": 8470, "vas": 8471, "\u2581rounded": 8472, "\u2581clement": 8473, "\u2581essay": 8474, "\u2581lebanon": 8475, "\u2581revealing": 8476, "\u2581fewer": 8477, "\u2581contents": 8478, "\u2581graphic": 8479, "\u2581reserves": 8480, "\u2581dame": 8481, "\u2581exhibitions": 8482, "\u2581pil": 8483, "duc": 8484, "\u2581rebels": 8485, "\u2581holes": 8486, "iel": 8487, "\u2581recruited": 8488, "sound": 8489, "bird": 8490, "\u2581auckland": 8491, "\u2581friedrich": 8492, "\u2581colleagues": 8493, "\u2581protocol": 8494, "\u2581whistle": 8495, "\u2581dragons": 8496, "\u2581unconscious": 8497, "\u2581pepper": 8498, "akh": 8499, "\u2581introduce": 8500, "\u2581clenched": 8501, "\u2581abstract": 8502, "nian": 8503, "\u2581lords": 8504, "\u2581stark": 8505, "bee": 8506, "\u2581kun": 8507, "\u2581yugoslavia": 8508, "\u2581absent": 8509, "\u2581ruin": 8510, "\u2581quantum": 8511, "\u25811972,": 8512, "\u2581screw": 8513, "\u2581bab": 8514, "1967": 8515, "\u2581bala": 8516, "\u2581email": 8517, "\u2581followers": 8518, "ered": 8519, "\u2581explorer": 8520, "\u2581lobby": 8521, "\u2581programmes": 8522, "\u2581dive": 8523, "\u2581feeding": 8524, "\u2581namely": 8525, "\u2581seminary": 8526, "dine": 8527, "\u2581priests": 8528, "\u2581dull": 8529, "\u2581sometime": 8530, "oz": 8531, "\u2581apollo": 8532, "\u2581beard": 8533, "\u2581connects": 8534, "\u2581thereby": 8535, "stad": 8536, "\u2581tat": 8537, "\u2581fbi": 8538, "\u2581consent": 8539, "\u2581backward": 8540, "rom": 8541, "super": 8542, "\u2581mum": 8543, "\u2581aggregate": 8544, "\u2581amounts": 8545, "\u2581sei": 8546, "\u2581sixty": 8547, "\u2581barrier": 8548, "\u2581albanian": 8549, "\u2581prestigious": 8550, "\u2581gem": 8551, "\u2581cricketer": 8552, "\u25811873": 8553, "\u2581sucked": 8554, "\u2581silently": 8555, "sil": 8556, "\u2581crops": 8557, "last": 8558, "corn": 8559, "omi": 8560, "2,000": 8561, "\u2581abdul": 8562, "\u2581idiot": 8563, "\u2581andrea": 8564, "\u2581quinn": 8565, "keeper": 8566, "\u2581iraqi": 8567, "\u2581descendants": 8568, "\u2581disbanded": 8569, "\u2581widened": 8570, "\u2581manufacturers": 8571, "\u2581loaded": 8572, "pack": 8573, "\u2581nebraska": 8574, "\u2581identification": 8575, "arra": 8576, "\u2581axis": 8577, "\u2581ober": 8578, "\u2581crest": 8579, "yam": 8580, "\u2581thi": 8581, "\u2581disk": 8582, "\u2581profit": 8583, "\u2581colt": 8584, "lim": 8585, "7,000": 8586, "\u2581registration": 8587, "asa": 8588, "\u2581perceived": 8589, "\u2581hd": 8590, "\u2581forgive": 8591, "\u2581bishops": 8592, "tation": 8593, "\u2581explore": 8594, "\u2581comprises": 8595, "\u2581hawk": 8596, "\u2581zhang": 8597, "hai": 8598, "bling": 8599, "\u2581tru": 8600, "\u2581lovely": 8601, "\u2581leslie": 8602, "\u2581blonde": 8603, "\u2581episcopal": 8604, "\u2581farther": 8605, "\u2581contribute": 8606, "built": 8607, "lla": 8608, "dos": 8609, "\u2581breathed": 8610, "\u2581chambers": 8611, "ify": 8612, "\u2581ps": 8613, "\u2581storyline": 8614, "\u2581mature": 8615, "\u2581sip": 8616, "\u2581northeastern": 8617, "\u2581midfielder": 8618, "\u2581nut": 8619, "\u2581aria": 8620, "november": 8621, "\u2581diversity": 8622, "\u2581kinds": 8623, "\u2581lamb": 8624, "eno": 8625, "\u2581organisations": 8626, "\u2581departments": 8627, "tag": 8628, "\u2581rot": 8629, "hib": 8630, "\u2581fl": 8631, "bag": 8632, "\u2581pianist": 8633, "\u2581sofia": 8634, "mir": 8635, "ann": 8636, "\u25811979,": 8637, "\u2581nashville": 8638, "anta": 8639, "bone": 8640, "kot": 8641, "\u2581publishers": 8642, "dl": 8643, "\u2581presidency": 8644, "action": 8645, "\u2581coin": 8646, "\u2581stockholm": 8647, "\u2581plains": 8648, "\u2581libraries": 8649, "\u2581console": 8650, "\u2581mt": 8651, "\u2581psycho": 8652, "\u2581anime": 8653, "\u2581vault": 8654, "although": 8655, "zhi": 8656, "\u2581spear": 8657, "\u2581glacier": 8658, "\u258196": 8659, "\u2581tau": 8660, "\u2581nate": 8661, "\u25811983,": 8662, "\u2581minimal": 8663, "rain": 8664, "\u2581vii": 8665, "\u2581towel": 8666, "\u258169": 8667, "\u2581melody": 8668, "\u2581lopez": 8669, "\u2581evaluation": 8670, "\u2581controls": 8671, "sim": 8672, "\u2581questioned": 8673, "\u2581tasks": 8674, "\u2581uncomfortable": 8675, "\u2581triangle": 8676, "\u2581warrant": 8677, "\u2581proceedings": 8678, "\u2581trevor": 8679, "\u2581steal": 8680, "qa": 8681, "tail": 8682, "\u2581yan": 8683, "\u25811974,": 8684, "\u2581preliminary": 8685, "guer": 8686, "\u2581predecessor": 8687, "\u2581cameras": 8688, "\u2581mineral": 8689, "\u2581survivors": 8690, "fra": 8691, "\u2581growled": 8692, "\u258185": 8693, "roll": 8694, "\u2581swamp": 8695, "weight": 8696, "\u2581stoke": 8697, "\u2581pension": 8698, "\u2581roster": 8699, "\u2581concepts": 8700, "\u2581vir": 8701, "mill": 8702, "\u2581trend": 8703, "vey": 8704, "\u2581eager": 8705, "\u2581paulo": 8706, "december": 8707, "\u2581chad": 8708, "\u2581communicate": 8709, "tens": 8710, "\u2581dale": 8711, "\u2581contracts": 8712, "\u2581implement": 8713, "\u2581boxer": 8714, "\u2581badge": 8715, "\u2581tributary": 8716, "\u2581vermont": 8717, "\u2581protecting": 8718, "\u2581bir": 8719, "\u2581protective": 8720, "\u2581prof": 8721, "tres": 8722, "\u2581estates": 8723, "und": 8724, "bet": 8725, "\u2581sil": 8726, "\u2581mast": 8727, "\u2581binding": 8728, "\u25811869": 8729, "\u2581consequently": 8730, "tric": 8731, "\u2581wolves": 8732, "\u2581reservation": 8733, "\u2581exhausted": 8734, "ack": 8735, "df": 8736, "\u258198": 8737, "\u2581provision": 8738, "\u2581colours": 8739, "\u2581frustration": 8740, "script": 8741, "\u2581anglican": 8742, "\u2581stevens": 8743, "\u2581honored": 8744, "\u2581altered": 8745, "\u258188": 8746, "\u2581brandon": 8747, "\u2581southwestern": 8748, "\u2581offense": 8749, "\u258177": 8750, "\u25811848": 8751, "uru": 8752, "jun": 8753, "\u2581actively": 8754, "\u2581boards": 8755, "ario": 8756, "\u2581kenneth": 8757, "\u2581feared": 8758, "\u2581jumping": 8759, "cam": 8760, "\u2581holmes": 8761, "\u2581cad": 8762, "pper": 8763, "\u2581alma": 8764, "moo": 8765, "tern": 8766, "\u2581ellen": 8767, "\u2581tribal": 8768, "\u2581lust": 8769, "\u2581graves": 8770, "orn": 8771, "\u2581hypo": 8772, "\u2581fatal": 8773, "force": 8774, "\u2581thursday": 8775, "iness": 8776, "\u2581fork": 8777, "gat": 8778, "dice": 8779, "\u2581mild": 8780, "\u2581bicycle": 8781, "pon": 8782, "\u2581sw": 8783, "won": 8784, "\u2581breeze": 8785, "\u2581ratings": 8786, "\u2581cara": 8787, "\u2581reid": 8788, "camp": 8789, "\u2581refugees": 8790, "\u2581threats": 8791, "\u2581eaten": 8792, "iti": 8793, "\u2581superintendent": 8794, "used": 8795, "atus": 8796, "\u2581gel": 8797, "\u2581protagonist": 8798, "\u2581counted": 8799, "\u2581santiago": 8800, "\u2581sheets": 8801, "\u2581infection": 8802, "\u2581wishes": 8803, "dro": 8804, "\u2581flip": 8805, "\u2581wounds": 8806, "gr": 8807, "\u2581tal": 8808, "\u2581tick": 8809, "ground": 8810, "ego": 8811, "\u2581accomplished": 8812, "\u2581essex": 8813, "fold": 8814, "\u2581spectrum": 8815, "heart": 8816, "\u2581bowling": 8817, "bly": 8818, "\u25812,000": 8819, "nate": 8820, "rou": 8821, "fur": 8822, "\u2581citizenship": 8823, "\u2581slim": 8824, "\u25811830": 8825, "\u2581gul": 8826, "\u2581dish": 8827, "\u2581liv": 8828, "\u2581proven": 8829, "aid": 8830, "\u2581appreciate": 8831, "\u2581sustained": 8832, "\u2581vinyl": 8833, "\u2581abolished": 8834, "\u2581helmet": 8835, "\u258173": 8836, "\u2581stall": 8837, "\u2581mama": 8838, "\u2581missionary": 8839, "edge": 8840, "lik": 8841, "brand": 8842, "uni": 8843, "mato": 8844, "\u2581wr": 8845, "1964": 8846, "\u2581involve": 8847, "\u2581pod": 8848, "\u2581gravity": 8849, "odo": 8850, "\u25811968,": 8851, "\u2581costume": 8852, "\u2581whip": 8853, "\u2581invented": 8854, "\u2581lifting": 8855, "chel": 8856, "\u2581solomon": 8857, "\u2581sig": 8858, "\u2581terrace": 8859, "\u2581overhead": 8860, "\u2581somebody": 8861, "nice": 8862, "\u2581stationed": 8863, "\u2581chains": 8864, "\u2581tobacco": 8865, "uber": 8866, "\u2581proceeded": 8867, "\u2581inscription": 8868, "\u2581napoleon": 8869, "\u2581extinct": 8870, "\u258174": 8871, "gian": 8872, "\u2581joel": 8873, "\u2581invisible": 8874, "\u2581feast": 8875, "\u2581procedures": 8876, "\u2581grammy": 8877, "\u2581rested": 8878, "\u2581provisions": 8879, "\u2581curriculum": 8880, "\u2581supplement": 8881, "\u2581prague": 8882, "ency": 8883, "hoo": 8884, "\u2581wednesday": 8885, "\u2581grants": 8886, "\u2581nico": 8887, "180": 8888, "igan": 8889, "\u2581administrator": 8890, "\u2581upstairs": 8891, "\u2581vic": 8892, "\u2581handful": 8893, "\u2581corners": 8894, "\u2581chant": 8895, "\u2581keyboard": 8896, "quin": 8897, "\u2581enzyme": 8898, "\u2581hospitals": 8899, "\u2581bypass": 8900, "vit": 8901, "\u2581strait": 8902, "\u2581everybody": 8903, "\u2581modest": 8904, "\u2581troy": 8905, "\u2581clue": 8906, "\u2581guided": 8907, "\u2581kerala": 8908, "\u2581oval": 8909, "\u2581journalists": 8910, "rg": 8911, "\u2581sn": 8912, "\u2581malcolm": 8913, "\u2581aero": 8914, "\u2581chef": 8915, "lv": 8916, "\u2581delicate": 8917, "\u2581divide": 8918, "\u2581mia": 8919, "\u2581citing": 8920, "\u2581discontinued": 8921, "\u2581possessed": 8922, "\u2581bailey": 8923, "vu": 8924, "\u2581coached": 8925, "\u2581documented": 8926, "lat": 8927, "\u2581washed": 8928, "kara": 8929, "lining": 8930, "\u2581griffin": 8931, "third": 8932, "\u2581acknowledged": 8933, "\u2581freak": 8934, "\u2581nasa": 8935, "\u2581perth": 8936, "\u2581lifestyle": 8937, "\u2581fol": 8938, "\u2581qualifier": 8939, "cf": 8940, "\u2581diploma": 8941, "\u2581acquire": 8942, "\u2581dense": 8943, "yen": 8944, "lich": 8945, "\u2581suggesting": 8946, "\u2581lectures": 8947, "1965": 8948, "\u2581diana": 8949, "\u2581columbus": 8950, "\u2581parked": 8951, "\u2581syrian": 8952, "\u2581severely": 8953, "pis": 8954, "\u2581refuge": 8955, "\u2581healing": 8956, "\u2581cassie": 8957, "\u2581bills": 8958, "sorry": 8959, "kie": 8960, "\u2581gru": 8961, "xx": 8962, "\u2581martha": 8963, "\u2581flowing": 8964, "\u2581opens": 8965, "\u258171": 8966, "\u2581honours": 8967, "\u2581keeps": 8968, "\u2581fre": 8969, "quo": 8970, "\u2581trim": 8971, "\u2581dies": 8972, "\u2581aims": 8973, "\u2581batman": 8974, "\u2581indonesian": 8975, "idi": 8976, "mates": 8977, "\u25811981,": 8978, "\u2581holder": 8979, "\u2581***": 8980, "\u2581requirement": 8981, "\u2581cartoon": 8982, "imp": 8983, "\u2581monitoring": 8984, "\u2581believing": 8985, "\u2581uganda": 8986, "\u2581bosnia": 8987, "\u2581conviction": 8988, "tru": 8989, "vc": 8990, "\u2581mus": 8991, "\u2581permit": 8992, "rent": 8993, "franc": 8994, "mother": 8995, "\u2581oakland": 8996, "\u2581cared": 8997, "\u2581sketch": 8998, "\u2581kenny": 8999, "\u2581arguing": 9000, "produced": 9001, "rbi": 9002, "\u2581farms": 9003, "\u2581singers": 9004, "\u2581examined": 9005, "\u2581handled": 9006, "db": 9007, "\u2581bradley": 9008, "\u2581spirits": 9009, "\u2581import": 9010, "\u2581lined": 9011, "\u2581mercury": 9012, "\u2581governing": 9013, "\u2581reforms": 9014, "\u2581statements": 9015, "tina": 9016, "\u2581zo": 9017, "never": 9018, "\u2581confident": 9019, "ht": 9020, "\u2581awful": 9021, "\u2581pierce": 9022, "\u2581glenn": 9023, "\u2581travelling": 9024, "\u2581somerset": 9025, "\u2581spark": 9026, "tow": 9027, "\u2581ou": 9028, "\u2581independently": 9029, "\u2581palestine": 9030, "\u2581reformed": 9031, "\u2581mort": 9032, "\u2581gerald": 9033, "\u2581hectares": 9034, "dir": 9035, "\u2581searched": 9036, "\u2581reconnaissance": 9037, "iger": 9038, "eff": 9039, "\u2581clause": 9040, "\u2581telegraph": 9041, "\u2581assured": 9042, "mia": 9043, "\u2581casey": 9044, "phon": 9045, "\u2581merc": 9046, "\u2581sculptor": 9047, "\u2581mare": 9048, "\u2581pac": 9049, "erson": 9050, "film": 9051, "\u2581requiring": 9052, "alo": 9053, "watch": 9054, "\u2581congo": 9055, "\u2581circulation": 9056, "\u2581thorn": 9057, "ress": 9058, "\u2581overcome": 9059, "\u2581vis": 9060, "\u2581segments": 9061, "kor": 9062, "\u2581dependent": 9063, "\u2581cultures": 9064, "\u2581buddy": 9065, "\u2581predominantly": 9066, "january": 9067, "tana": 9068, "\u2581macro": 9069, "nier": 9070, "\u2581chronicle": 9071, "japanese": 9072, "\u2581extends": 9073, "\u2581woodland": 9074, "hab": 9075, "coming": 9076, "bul": 9077, "\u2581upcoming": 9078, "\u2581spray": 9079, "\u2581ridiculous": 9080, "\u2581slope": 9081, "\u2581legendary": 9082, "\u2581algorithm": 9083, "\u2581kylie": 9084, "\u2581ballad": 9085, "lab": 9086, "\u2581casting": 9087, "\u2581trainer": 9088, "\u2581bags": 9089, "\u2581facebook": 9090, "\u2581lungs": 9091, "\u2581detect": 9092, "lk": 9093, "\u2581180": 9094, "cm": 9095, "\u2581removing": 9096, "site": 9097, "stage": 9098, "something": 9099, "pole": 9100, "\u2581item": 9101, "cine": 9102, "\u2581monica": 9103, "abi": 9104, "aq": 9105, "\u2581layout": 9106, "thanks": 9107, "\u2581cyber": 9108, "lev": 9109, "1962": 9110, "\u2581temples": 9111, "\u2581limestone": 9112, "little": 9113, "\u2581genes": 9114, "\u25811800": 9115, "\u25811975,": 9116, "\u2581servants": 9117, "\u2581manages": 9118, "iah": 9119, "\u2581guarantee": 9120, "\u2581practiced": 9121, "\u2581buzz": 9122, "\u2581seventeen": 9123, "\u2581layers": 9124, "\u2581portions": 9125, "mobil": 9126, "\u2581envelope": 9127, "\u2581photograph": 9128, "\u2581politicians": 9129, "\u2581nerve": 9130, "\u2581homo": 9131, "\u2581terrain": 9132, "\u25811859": 9133, "\u2581brunswick": 9134, "gren": 9135, "\u2581basket": 9136, "\u2581chairs": 9137, "\u2581reflection": 9138, "\u25811971,": 9139, "\u2581lease": 9140, "beck": 9141, "qi": 9142, "\u2581appeals": 9143, "\u2581oral": 9144, "\u2581torpedo": 9145, "mere": 9146, "\u25811857": 9147, "\u2581cheap": 9148, "\u2581virtually": 9149, "ambi": 9150, "\u2581retiring": 9151, "\u2581rapper": 9152, "\u2581qui": 9153, "\u2581mona": 9154, "\u2581mick": 9155, "shin": 9156, "\u2581criteria": 9157, "\u2581armstrong": 9158, "umi": 9159, "\u2581mug": 9160, "sher": 9161, "\u2581ribbon": 9162, "\u2581gall": 9163, "\u2581puzzle": 9164, "fla": 9165, "grand": 9166, "\u2581theyre": 9167, "bil": 9168, "\u2581floors": 9169, "\u2581edgar": 9170, "\u2581twentieth": 9171, "\u2581goalkeeper": 9172, "\u2581victories": 9173, "\u25811978,": 9174, "\u2581papa": 9175, "\u2581diplomat": 9176, "\u2581princeton": 9177, "ids": 9178, "\u2581catalogue": 9179, "hel": 9180, "gene": 9181, "\u2581scha": 9182, "\u2581lev": 9183, "\u2581bros": 9184, "\u2581swallow": 9185, "\u2581dictionary": 9186, "\u25811976,": 9187, "iere": 9188, "\u2581til": 9189, "\u2581kh": 9190, "\u2581intimate": 9191, "\u2581crap": 9192, "\u2581bail": 9193, "\u2581interactive": 9194, "\u2581terra": 9195, "\u2581prophet": 9196, "\u2581wingspan": 9197, "ici": 9198, "\u2581sally": 9199, "call": 9200, "\u2581manila": 9201, "\u2581conducting": 9202, "\u2581sharply": 9203, "\u2581richardson": 9204, "\u2581collegiate": 9205, "\u2581sustainable": 9206, "ania": 9207, "\u2581essays": 9208, "rna": 9209, "\u2581mcdonald": 9210, "phil": 9211, "\u2581ugly": 9212, "\u2581organize": 9213, "\u2581intelligent": 9214, "\u2581tourists": 9215, "\u2581relatives": 9216, "\u2581dagger": 9217, "\u2581nationwide": 9218, "specific": 9219, "amo": 9220, "\u2581swim": 9221, "mol": 9222, "\u2581lung": 9223, "\u2581educator": 9224, "\u2581geographic": 9225, "\u2581privacy": 9226, "\u2581enjoying": 9227, "\u2581sphere": 9228, "oxy": 9229, "\u2581ranges": 9230, "\u2581maiden": 9231, "\u2581triumph": 9232, "\u2581sas": 9233, "\u2581civilians": 9234, "\u2581tr": 9235, "\u2581crush": 9236, "\u2581fraser": 9237, "ische": 9238, "\u2581insight": 9239, "\u2581enable": 9240, "\u2581investors": 9241, "\u2581pir": 9242, "\u2581allan": 9243, "\u2581horrible": 9244, "\u2581restrictions": 9245, "\u2581hesitated": 9246, "\u2581creator": 9247, "\u2581supervisor": 9248, "\u2581davies": 9249, "\u2581archive": 9250, "pd": 9251, "\u2581entity": 9252, "omo": 9253, "\u2581tournaments": 9254, "\u2581suburban": 9255, "eyed": 9256, "\u2581cherry": 9257, "\u2581deny": 9258, "\u2581brun": 9259, "\u2581georgian": 9260, "\u2581krishna": 9261, "issa": 9262, "\u2581ripped": 9263, "\u2581desired": 9264, "\u2581sec": 9265, "oku": 9266, "\u2581define": 9267, "quet": 9268, "hum": 9269, "\u2581rho": 9270, "1963": 9271, "\u2581trek": 9272, "\u2581improving": 9273, "\u2581civilization": 9274, "\u2581daddy": 9275, "\u2581nc": 9276, "\u2581nag": 9277, "\u2581rodriguez": 9278, "\u2581curved": 9279, "3/": 9280, "\u2581kala": 9281, "\u2581aggressive": 9282, "\u2581aires": 9283, "trop": 9284, "\u2581jamaica": 9285, "\u2581spit": 9286, "\u2581abruptly": 9287, "nine": 9288, "\u2581seated": 9289, "\u2581cement": 9290, "\u2581wol": 9291, "\u2581freed": 9292, "\u2581caps": 9293, "ugh": 9294, "\u2581beliefs": 9295, "\u2581warn": 9296, "\u2581lor": 9297, "2/": 9298, "\u2581tucked": 9299, "\u2581ferdinand": 9300, "\u2581hydrogen": 9301, "\u2581theological": 9302, "show": 9303, "tham": 9304, "\u2581embrace": 9305, "\u2581punjab": 9306, "\u2581stability": 9307, "\u2581realizing": 9308, "\u2581awkward": 9309, "sometimes": 9310, "\u2581dollar": 9311, "\u2581butterfly": 9312, "\u25811973,": 9313, "\u2581eventual": 9314, "\u2581integral": 9315, "\u2581compiled": 9316, "\u2581dumb": 9317, "\u2581flags": 9318, "\u2581flo": 9319, "\u2581comedian": 9320, "\u2581ignoring": 9321, "\u2581thread": 9322, "anda": 9323, "\u2581necessarily": 9324, "shing": 9325, "\u2581privately": 9326, "\u2581pic": 9327, "\u2581renewed": 9328, "etic": 9329, "\u2581loves": 9330, "\u2581giovanni": 9331, "\u2581perception": 9332, "\u2581breach": 9333, "\u2581absorbed": 9334, "\u2581assassination": 9335, "\u2581thighs": 9336, "\u2581closet": 9337, "\u2581enabled": 9338, "position": 9339, "\u2581kills": 9340, "\u2581capitol": 9341, "\u2581hearts": 9342, "\u2581dubbed": 9343, "\u2581synonym": 9344, "\u2581aboriginal": 9345, "\u2581suburbs": 9346, "\u2581proto": 9347, "\u2581consequence": 9348, "\u2581hin": 9349, "\u2581ammunition": 9350, "duct": 9351, "\u2581fernando": 9352, "\u2581moreover": 9353, "\u2581elena": 9354, "mil": 9355, "lina": 9356, "\u2581cylinder": 9357, "\u2581galaxy": 9358, "\u2581lighter": 9359, "\u2581gravel": 9360, "\u2581referendum": 9361, "uci": 9362, "\u2581arsenal": 9363, "\u2581witnesses": 9364, "\u2581carlo": 9365, "\u2581peri": 9366, "\u2581statute": 9367, "bru": 9368, "\u2581tuesday": 9369, "\u2581ashley": 9370, "though": 9371, "cola": 9372, "whi": 9373, "eye": 9374, "code": 9375, "\u2581chloe": 9376, "nn": 9377, "bahn": 9378, "\u2581160": 9379, "\u2581unexpected": 9380, "\u2581speaks": 9381, "\u2581scotia": 9382, "\u2581painful": 9383, "\u2581nm": 9384, "\u2581arabia": 9385, "\u2581que": 9386, "\u2581doll": 9387, "\u2581polo": 9388, "\u2581deadly": 9389, "hawk": 9390, "\u2581presenter": 9391, "\u2581edit": 9392, "\u2581expanding": 9393, "dai": 9394, "\u2581lei": 9395, "lah": 9396, "vier": 9397, "\u2581monsters": 9398, "\u2581dor": 9399, "\u2581boarding": 9400, "\u2581authorized": 9401, "\u2581packed": 9402, "\u2581duration": 9403, "\u2581cardinals": 9404, "\u2581insane": 9405, "\u2581innovative": 9406, "park": 9407, "mari": 9408, "\u2581nicole": 9409, "care": 9410, "\u2581rep": 9411, "\u2581displays": 9412, "\u2581lawn": 9413, "\u2581ordained": 9414, "\u2581henderson": 9415, "\u2581trustees": 9416, "\u2581teenage": 9417, "\u2581rivals": 9418, "rox": 9419, "\u2581flooding": 9420, "\u2581pissed": 9421, "\u2581mumbai": 9422, "\u2581associates": 9423, "\u2581tsu": 9424, "\u258144,": 9425, "\u2581az": 9426, "\u258197": 9427, "astic": 9428, "\u2581claude": 9429, "\u2581reserved": 9430, "\u2581rotation": 9431, "\u2581sunlight": 9432, "sty": 9433, "\u2581lutheran": 9434, "\u2581pour": 9435, "\u2581catching": 9436, "\u2581emerge": 9437, "ucci": 9438, "lac": 9439, "otic": 9440, "\u2581dodge": 9441, "\u2581substance": 9442, "\u2581smiles": 9443, "\u2581buenos": 9444, "\u2581optical": 9445, "brown": 9446, "\u25811967,": 9447, "\u2581invention": 9448, "\u2581panels": 9449, "\u2581aesthetic": 9450, "\u2581stepping": 9451, "lux": 9452, "verse": 9453, "\u2581cuban": 9454, "\u2581cooperative": 9455, "\u2581width": 9456, "\u2581gui": 9457, "\u2581drops": 9458, "\u2581buying": 9459, "\u2581avoided": 9460, "\u2581broadcasts": 9461, "\u2581allegedly": 9462, "\u2581compensation": 9463, "\u2581streams": 9464, "\u2581potentially": 9465, "\u2581shuttle": 9466, "\u2581gibson": 9467, "sho": 9468, "hc": 9469, "\u2581coll": 9470, "\u2581cats": 9471, "ume": 9472, "mag": 9473, "\u2581habit": 9474, "\u2581operators": 9475, "\u2581prop": 9476, "oper": 9477, "\u2581powell": 9478, "\u2581andrews": 9479, "burgh": 9480, "\u2581blair": 9481, "\u2581theoretical": 9482, "\u2581upgrade": 9483, "\u2581peaceful": 9484, "\u2581siblings": 9485, "\u2581thermal": 9486, "\u2581concentrate": 9487, "\u2581med": 9488, "\u2581130": 9489, "quarterfinals": 9490, "\u2581prompted": 9491, "\u2581tug": 9492, "operative": 9493, "\u2581plateau": 9494, "ree": 9495, "nath": 9496, "\u2581particles": 9497, "\u2581wagon": 9498, "guard": 9499, "\u2581extraordinary": 9500, "\u2581calvin": 9501, "sai": 9502, "\u2581teen": 9503, "\u2581verb": 9504, "\u2581burden": 9505, "\u2581miranda": 9506, "syn": 9507, "\u2581limp": 9508, "\u2581gt": 9509, "\u2581editing": 9510, "\u2581headquartered": 9511, "\u2581adopt": 9512, "february": 9513, "\u2581marina": 9514, "\u2581brussels": 9515, "\u2581flipped": 9516, "\u2581geological": 9517, "1945": 9518, "1958": 9519, "\u2581frog": 9520, "\u2581excess": 9521, "dec": 9522, "\u25816:": 9523, "\u2581coral": 9524, "\u2581argues": 9525, "\u2581chelsea": 9526, "\u2581sage": 9527, "\u2581arched": 9528, "\u2581assembled": 9529, "cate": 9530, "\u2581fraud": 9531, "\u2581theorem": 9532, "\u2581glared": 9533, "mart": 9534, "\u2581gavin": 9535, "\u2581targeted": 9536, "\u2581goodbye": 9537, "\u2581philosophical": 9538, "other": 9539, "\u2581milwaukee": 9540, "\u2581celebrity": 9541, "\u2581divorced": 9542, "\u2581oct": 9543, "zie": 9544, "lash": 9545, "cot": 9546, "\u2581dimension": 9547, "\u2581dominic": 9548, "cock": 9549, "\u2581faction": 9550, "\u2581ports": 9551, "\u2581smelled": 9552, "\u2581drinks": 9553, "\u2581listing": 9554, "\u2581michelle": 9555, "tsu": 9556, "sse": 9557, "\u2581conjunction": 9558, "\u2581mound": 9559, "radi": 9560, "\u2581surgeon": 9561, "\u2581founders": 9562, "\u2581bai": 9563, "\u2581forgot": 9564, "\u2581pyramid": 9565, "\u2581jerk": 9566, "\u2581rib": 9567, "tec": 9568, "\u2581sci": 9569, "\u2581durham": 9570, "iga": 9571, "\u25811969,": 9572, "\u2581trips": 9573, "\u2581neg": 9574, "\u2581secular": 9575, "\u2581underwent": 9576, "temp": 9577, "dam": 9578, "\u2581discovers": 9579, "bill": 9580, "\u2581descended": 9581, "sham": 9582, "\u2581precious": 9583, "\u2581predict": 9584, "inus": 9585, "\u2581playstation": 9586, "word": 9587, "1957": 9588, "mund": 9589, "\u2581nineteenth": 9590, "\u2581quoted": 9591, "\u2581imagination": 9592, "\u2581pavilion": 9593, "\u2581toilet": 9594, "\u2581sac": 9595, "fy": 9596, "\u2581depends": 9597, "cour": 9598, "\u2581poison": 9599, "\u2581100,000": 9600, "\u2581prosecutor": 9601, "\u2581foul": 9602, "ija": 9603, "\u2581granite": 9604, "eria": 9605, "paul": 9606, "\u2581alumni": 9607, "\u2581uprising": 9608, "\u2581spinning": 9609, "dad": 9610, "1959": 9611, "\u2581fran": 9612, "\u2581pursued": 9613, "graph": 9614, "\u2581lied": 9615, "ache": 9616, "\u2581performer": 9617, "rai": 9618, "hom": 9619, "\u25811855": 9620, "\u2581eyebrow": 9621, "\u258192": 9622, "pg": 9623, "\u2581sponsor": 9624, "\u2581enlisted": 9625, "ista": 9626, "uous": 9627, "\u2581discrimination": 9628, "equi": 9629, "\u2581varied": 9630, "sko": 9631, "ement": 9632, "ivity": 9633, "\u2581bod": 9634, "party": 9635, "\u2581archer": 9636, "yev": 9637, "vil": 9638, "him": 9639, "\u2581luxury": 9640, "lf": 9641, "\u2581wit": 9642, "\u2581cdp": 9643, "\u2581disappointed": 9644, "\u2581kr": 9645, "\u2581drawings": 9646, "\u2581ari": 9647, "\u2581platinum": 9648, "girl": 9649, "\u2581dominican": 9650, "\u2581delegation": 9651, "egan": 9652, "\u2581rhode": 9653, "\u2581activated": 9654, "riv": 9655, "\u2581stein": 9656, "writer": 9657, "\u2581dil": 9658, "\u2581mam": 9659, "\u2581compositions": 9660, "\u2581drain": 9661, "\u2581knots": 9662, "\u25811854": 9663, "\u2581dev": 9664, "\u2581dwell": 9665, "\u2581youve": 9666, "\u2581salon": 9667, "ago": 9668, "\u2581harp": 9669, "\u2581joshua": 9670, "haven": 9671, "\u2581lil": 9672, "\u2581indies": 9673, "iki": 9674, "\u2581vent": 9675, "rach": 9676, "roman": 9677, "\u2581crane": 9678, "urs": 9679, "\u2581sud": 9680, "\u2581facilitate": 9681, "\u2581withdrawn": 9682, "\u2581presbyterian": 9683, "\u2581spreading": 9684, "shima": 9685, "\u2581commit": 9686, "lessly": 9687, "\u2581seemingly": 9688, "\u2581marion": 9689, "\u2581neighbouring": 9690, "\u2581examine": 9691, "\u2581atomic": 9692, "ign": 9693, "\u2581dwarf": 9694, "\u2581creates": 9695, "\u2581canvas": 9696, "\u2581amusement": 9697, "\u2581infinite": 9698, "grave": 9699, "fly": 9700, "\u2581mechanics": 9701, "\u2581membrane": 9702, "\u2581steering": 9703, "\u2581feminist": 9704, "\u2581distinguish": 9705, "\u2581dealt": 9706, "\u2581shepherd": 9707, "ault": 9708, "cata": 9709, "\u2581nash": 9710, "\u258193": 9711, "orient": 9712, "\u2581heather": 9713, "1956": 9714, "\u2581citation": 9715, "\u2581luther": 9716, "\u2581isle": 9717, "talk": 9718, "\u2581shoe": 9719, "stown": 9720, "aca": 9721, "\u2581lynch": 9722, "\u2581tackle": 9723, "\u2581cleaning": 9724, "cell": 9725, "\u2581westminster": 9726, "\u2581katherine": 9727, "\u2581mint": 9728, "str": 9729, "\u2581vin": 9730, "\u2581filipino": 9731, "\u2581betty": 9732, "\u2581shaped": 9733, "cop": 9734, "\u2581yoshi": 9735, "\u2581hurried": 9736, "\u2581indianapolis": 9737, "\u2581relax": 9738, "eus": 9739, "\u2581berth": 9740, "\u2581alto": 9741, "left": 9742, "\u2581witnessed": 9743, "tch": 9744, "\u2581hometown": 9745, "\u2581accidentally": 9746, "iba": 9747, "\u2581solely": 9748, "\u2581nina": 9749, "\u2581cp": 9750, "brien": 9751, "disc": 9752, "osi": 9753, "aye": 9754, "ass": 9755, "dh": 9756, "\u25811941,": 9757, "\u2581vietnamese": 9758, "\u2581burton": 9759, "body": 9760, "\u2581sweep": 9761, "\u2581inspection": 9762, "hem": 9763, "\u2581hardy": 9764, "\u2581doc": 9765, "\u258182": 9766, "\u2581maintains": 9767, "zing": 9768, "\u2581tucker": 9769, "\u2581textile": 9770, "\u2581venues": 9771, "\u2581kap": 9772, "\u2581dante": 9773, "\u2581outcome": 9774, "\u2581milton": 9775, "gn": 9776, "\u2581potter": 9777, "\u25811942,": 9778, "bah": 9779, "mount": 9780, "\u2581bron": 9781, "jon": 9782, "\u2581circus": 9783, "\u2581novelist": 9784, "\u2581moh": 9785, "\u2581pump": 9786, "\u258189": 9787, "\u2581bil": 9788, "\u2581spiral": 9789, "asse": 9790, "\u25811977,": 9791, "\u2581batting": 9792, "yuki": 9793, "\u2581symbols": 9794, "fen": 9795, "\u2581larvae": 9796, "\u2581bump": 9797, "250": 9798, "\u2581confession": 9799, "\u2581lauren": 9800, "\u2581icon": 9801, "tile": 9802, "\u2581varies": 9803, "scher": 9804, "ndi": 9805, "\u2581feat": 9806, "rif": 9807, "\u2581preference": 9808, "\u2581healthcare": 9809, "\u25811849": 9810, "\u2581threatening": 9811, "arabic": 9812, "ule": 9813, "ias": 9814, "\u2581anthology": 9815, "7/": 9816, "\u2581safely": 9817, "fusion": 9818, "tori": 9819, "\u2581observations": 9820, "\u2581determination": 9821, "\u2581slavery": 9822, "\u2581burke": 9823, "\u2581numbered": 9824, "holm": 9825, "\u2581decrease": 9826, "\u2581boo": 9827, "\u2581startled": 9828, "\u2581doi": 9829, "\u2581aerial": 9830, "\u25811965,": 9831, "\u2581desperately": 9832, "\u2581crop": 9833, "eater": 9834, "ono": 9835, "\u2581quan": 9836, "\u2581diving": 9837, "\u2581phenomenon": 9838, "150": 9839, "\u2581wicked": 9840, "\u2581dy": 9841, "\u2581hugo": 9842, "\u2581lonely": 9843, "powered": 9844, "\u2581antenna": 9845, "\u258184": 9846, "\u2581sox": 9847, "\u2581magnus": 9848, "\u2581blaze": 9849, "\u2581trucks": 9850, "\u2581regent": 9851, "\u2581varying": 9852, "\u2581lighthouse": 9853, "\u2581resolve": 9854, "\u2581observer": 9855, "\u2581tate": 9856, "\u2581priority": 9857, "cht": 9858, "\u2581melissa": 9859, "\u2581courtyard": 9860, "ition": 9861, "\u2581taka": 9862, "plan": 9863, "\u2581ladder": 9864, "\u2581drift": 9865, "\u2581newport": 9866, "\u2581esp": 9867, "\u2581posts": 9868, "storey": 9869, "neck": 9870, "\u258181": 9871, "ireland": 9872, "\u2581rebecca": 9873, "\u2581souls": 9874, "\u2581emmy": 9875, "\u2581neighbourhood": 9876, "\u2581performers": 9877, "\u2581peoples": 9878, "\u2581groaned": 9879, "\u2581strikes": 9880, "cn": 9881, "\u2581spe": 9882, "\u2581tenor": 9883, "\u2581afterward": 9884, "\u2581cycling": 9885, "\u2581checking": 9886, "\u2581fry": 9887, "\u2581consideration": 9888, "\u2581cornwall": 9889, "\u2581gripped": 9890, "\u2581loser": 9891, "\u2581paradise": 9892, "\u2581maneuver": 9893, "nea": 9894, "\u2581rifles": 9895, "\u2581traced": 9896, "pla": 9897, "\u2581lyon": 9898, "1939": 9899, "\u2581jess": 9900, "gawa": 9901, "\u2581remarkable": 9902, "pie": 9903, "\u2581nominee": 9904, "\u2581gasp": 9905, "pho": 9906, "xia": 9907, "iq": 9908, "por": 9909, "\u2581grabbing": 9910, "\u2581uni": 9911, "\u2581eden": 9912, "\u2581dimensions": 9913, "\u2581scope": 9914, "\u2581mandate": 9915, "\u2581darling": 9916, "\u2581125": 9917, "\u2581ahmad": 9918, "\u2581controller": 9919, "1961": 9920, "wu": 9921, "ators": 9922, "\u2581diary": 9923, "\u2581adapt": 9924, "\u2581tactics": 9925, "\u2581hiv": 9926, "\u2581counts": 9927, "\u2581pitched": 9928, "\u2581roller": 9929, "bund": 9930, "\u2581specified": 9931, "\u2581salvador": 9932, "\u258179": 9933, "\u2581broadcaster": 9934, "\u2581cle": 9935, "\u2581caesar": 9936, "\u2581measuring": 9937, "\u2581frankfurt": 9938, "\u2581ludwig": 9939,
[...]
